// E.C.H.O Tiny ESP8266 model (int8 quantized)
// Global Normalization Divisor: 143.212067
// NUMBER_OF_INPUTS: 192

#ifndef ECHO_MODEL_H
#define ECHO_MODEL_H

alignas(8) const unsigned char echo_model_tflite[] = {
  0x1c, 0x0, 0x0, 0x0, 0x54, 0x46, 0x4c, 0x33, 0x14, 0x0, 0x20, 0x0,
  0x1c, 0x0, 0x18, 0x0, 0x14, 0x0, 0x10, 0x0, 0xc, 0x0, 0x0, 0x0,
  0x8, 0x0, 0x4, 0x0, 0x14, 0x0, 0x0, 0x0, 0x1c, 0x0, 0x0, 0x0,
  0x94, 0x0, 0x0, 0x0, 0xec, 0x0, 0x0, 0x0, 0x8, 0x1d, 0x0, 0x0,
  0x18, 0x1d, 0x0, 0x0, 0x24, 0x29, 0x0, 0x0, 0x3, 0x0, 0x0, 0x0,
  0x1, 0x0, 0x0, 0x0, 0x10, 0x0, 0x0, 0x0, 0x0, 0x0, 0xa, 0x0,
  0x10, 0x0, 0xc, 0x0, 0x8, 0x0, 0x4, 0x0, 0xa, 0x0, 0x0, 0x0,
  0xc, 0x0, 0x0, 0x0, 0x1c, 0x0, 0x0, 0x0, 0x3c, 0x0, 0x0, 0x0,
  0xf, 0x0, 0x0, 0x0, 0x73, 0x65, 0x72, 0x76, 0x69, 0x6e, 0x67, 0x5f,
  0x64, 0x65, 0x66, 0x61, 0x75, 0x6c, 0x74, 0x0, 0x1, 0x0, 0x0, 0x0,
  0x4, 0x0, 0x0, 0x0, 0x94, 0xff, 0xff, 0xff, 0xa, 0x0, 0x0, 0x0,
  0x4, 0x0, 0x0, 0x0, 0x8, 0x0, 0x0, 0x0, 0x6f, 0x75, 0x74, 0x70,
  0x75, 0x74, 0x5f, 0x30, 0x0, 0x0, 0x0, 0x0, 0x1, 0x0, 0x0, 0x0,
  0x4, 0x0, 0x0, 0x0, 0xde, 0xe2, 0xff, 0xff, 0x4, 0x0, 0x0, 0x0,
  0xb, 0x0, 0x0, 0x0, 0x72, 0x61, 0x64, 0x61, 0x72, 0x5f, 0x69, 0x6e,
  0x70, 0x75, 0x74, 0x0, 0x2, 0x0, 0x0, 0x0, 0x34, 0x0, 0x0, 0x0,
  0x4, 0x0, 0x0, 0x0, 0xdc, 0xff, 0xff, 0xff, 0xd, 0x0, 0x0, 0x0,
  0x4, 0x0, 0x0, 0x0, 0x13, 0x0, 0x0, 0x0, 0x43, 0x4f, 0x4e, 0x56,
  0x45, 0x52, 0x53, 0x49, 0x4f, 0x4e, 0x5f, 0x4d, 0x45, 0x54, 0x41, 0x44,
  0x41, 0x54, 0x41, 0x0, 0x8, 0x0, 0xc, 0x0, 0x8, 0x0, 0x4, 0x0,
  0x8, 0x0, 0x0, 0x0, 0xc, 0x0, 0x0, 0x0, 0x4, 0x0, 0x0, 0x0,
  0x13, 0x0, 0x0, 0x0, 0x6d, 0x69, 0x6e, 0x5f, 0x72, 0x75, 0x6e, 0x74,
  0x69, 0x6d, 0x65, 0x5f, 0x76, 0x65, 0x72, 0x73, 0x69, 0x6f, 0x6e, 0x0,
  0xe, 0x0, 0x0, 0x0, 0x18, 0x1c, 0x0, 0x0, 0x10, 0x1c, 0x0, 0x0,
  0xf4, 0x1b, 0x0, 0x0, 0xb4, 0x1b, 0x0, 0x0, 0x64, 0x1b, 0x0, 0x0,
  0x54, 0x19, 0x0, 0x0, 0xc4, 0x18, 0x0, 0x0, 0xb4, 0x0, 0x0, 0x0,
  0xac, 0x0, 0x0, 0x0, 0xa4, 0x0, 0x0, 0x0, 0x9c, 0x0, 0x0, 0x0,
  0x94, 0x0, 0x0, 0x0, 0x74, 0x0, 0x0, 0x0, 0x4, 0x0, 0x0, 0x0,
  0x8e, 0xe3, 0xff, 0xff, 0x4, 0x0, 0x0, 0x0, 0x60, 0x0, 0x0, 0x0,
  0xc, 0x0, 0x0, 0x0, 0x8, 0x0, 0xe, 0x0, 0x8, 0x0, 0x4, 0x0,
  0x8, 0x0, 0x0, 0x0, 0x10, 0x0, 0x0, 0x0, 0x28, 0x0, 0x0, 0x0,
  0x0, 0x0, 0x6, 0x0, 0x8, 0x0, 0x4, 0x0, 0x6, 0x0, 0x0, 0x0,
  0x4, 0x0, 0x0, 0x0, 0x1, 0x0, 0x0, 0x0, 0xeb, 0x3, 0x0, 0x0,
  0xc, 0x0, 0x18, 0x0, 0x14, 0x0, 0x10, 0x0, 0xc, 0x0, 0x4, 0x0,
  0xc, 0x0, 0x0, 0x0, 0x84, 0x65, 0x26, 0xbd, 0x55, 0x55, 0x8c, 0x93,
  0x2, 0x0, 0x0, 0x0, 0x2, 0x0, 0x0, 0x0, 0x4, 0x0, 0x0, 0x0,
  0x6, 0x0, 0x0, 0x0, 0x32, 0x2e, 0x32, 0x31, 0x2e, 0x30, 0x0, 0x0,
  0xfa, 0xe3, 0xff, 0xff, 0x4, 0x0, 0x0, 0x0, 0x10, 0x0, 0x0, 0x0,
  0x31, 0x2e, 0x31, 0x34, 0x2e, 0x30, 0x0, 0x0, 0x0, 0x0, 0x0, 0x0,
  0x0, 0x0, 0x0, 0x0, 0xe4, 0xe3, 0xff, 0xff, 0xe8, 0xe3, 0xff, 0xff,
  0xec, 0xe3, 0xff, 0xff, 0xf0, 0xe3, 0xff, 0xff, 0x26, 0xe4, 0xff, 0xff,
  0x4, 0x0, 0x0, 0x0, 0x0, 0x18, 0x0, 0x0, 0xb3, 0x54, 0x8f, 0x5b,
  0x8, 0x4b, 0xd5, 0xea, 0x45, 0x66, 0xd7, 0xc7, 0xdd, 0x2b, 0x11, 0x91,
  0x1, 0x9f, 0x66, 0xf5, 0x29, 0x8a, 0xb5, 0x9a, 0xa7, 0x41, 0xca, 0xc0,
  0xdf, 0xe4, 0xbd, 0x3e, 0x31, 0x93, 0x19, 0xb4, 0xd, 0x3e, 0x46, 0x9f,
  0xf4, 0xf0, 0xe0, 0x57, 0x24, 0xd5, 0x56, 0x29, 0x88, 0x9c, 0xb3, 0x8f,
  0xfc, 0xbf, 0x16, 0x8f, 0xd1, 0x93, 0xff, 0x81, 0x8, 0xf, 0x2a, 0xa8,
  0x24, 0xec, 0xf5, 0xef, 0x1b, 0xdc, 0x4c, 0xce, 0xcd, 0x9e, 0xea, 0x21,
  0xe3, 0xc6, 0x89, 0x41, 0x55, 0x64, 0x86, 0xb5, 0xde, 0xdf, 0xb7, 0xce,
  0x10, 0x2d, 0x8b, 0x6c, 0x36, 0xe6, 0x55, 0xe4, 0xa4, 0x5f, 0xa1, 0x9c,
  0xba, 0xb0, 0xca, 0x61, 0x65, 0xc4, 0x5f, 0x9f, 0xa0, 0x34, 0xab, 0xf8,
  0x4, 0xb4, 0x8d, 0xca, 0x64, 0xa9, 0xb, 0xc4, 0x63, 0xf6, 0xce, 0x32,
  0x83, 0x1c, 0xe7, 0xaf, 0x27, 0x3d, 0x88, 0x5b, 0xf1, 0x29, 0x85, 0x13,
  0x98, 0xaf, 0xb1, 0x9a, 0xe4, 0x86, 0xe4, 0xa5, 0xc8, 0x13, 0x3e, 0xda,
  0x74, 0xff, 0x13, 0x2b, 0x48, 0x19, 0x51, 0x89, 0x52, 0x15, 0x29, 0xfc,
  0xd0, 0x50, 0x93, 0xf7, 0xcb, 0x58, 0xec, 0xa3, 0xc7, 0xdd, 0x4f, 0x93,
  0xa7, 0x24, 0xf4, 0xc0, 0xa7, 0xbe, 0x93, 0xe2, 0x4e, 0xf1, 0xc8, 0x63,
  0x3a, 0x6b, 0x27, 0x4b, 0x5b, 0x48, 0x86, 0xf5, 0x81, 0x94, 0x95, 0xaa,
  0xba, 0xe2, 0xef, 0xee, 0xce, 0xbd, 0xbd, 0xa8, 0xc5, 0xef, 0x7, 0xa,
  0xa, 0x10, 0xff, 0x6, 0x11, 0x11, 0xf2, 0xba, 0xc6, 0xf0, 0x12, 0x1,
  0xfd, 0xfe, 0xf4, 0x6, 0xfd, 0x3, 0xda, 0x9a, 0x81, 0xa4, 0xdd, 0x6,
  0x5, 0xf9, 0x0, 0x3, 0x2, 0xfc, 0xf0, 0xed, 0x3, 0xfc, 0x1, 0xfd,
  0xb, 0x9, 0x5, 0x6, 0xfd, 0x1, 0x6, 0x2, 0xa, 0x6, 0x6, 0xfc,
  0x6, 0x5, 0xf, 0x8, 0x9, 0xfc, 0xf9, 0xfa, 0xf9, 0x0, 0xe2, 0xe9,
  0xd7, 0xfd, 0x0, 0x3, 0x13, 0x5, 0xb, 0xc, 0xe, 0x11, 0x12, 0x9,
  0x8, 0x9, 0x8, 0xb, 0x5, 0x3, 0x10, 0x9, 0xe, 0x0, 0x0, 0xfd,
  0x2, 0xfb, 0x1, 0x8, 0x0, 0xb, 0xfd, 0x1, 0xff, 0xf7, 0xed, 0xf5,
  0xf4, 0xdb, 0xd1, 0xe8, 0xec, 0xeb, 0xfb, 0xfb, 0xf8, 0xf9, 0xff, 0x4,
  0x4, 0x3, 0xf8, 0xff, 0x4, 0xfc, 0xff, 0x6, 0x2, 0x1, 0x4, 0x3,
  0xfb, 0x1, 0x2, 0xa, 0xfa, 0xfe, 0xfb, 0xb, 0x0, 0x6, 0xf3, 0xef,
  0xed, 0xd9, 0xdd, 0xca, 0xc6, 0xce, 0xd3, 0xc0, 0xe2, 0xeb, 0xdb, 0xe6,
  0xe5, 0xf2, 0xed, 0xf8, 0xe1, 0xfc, 0xf3, 0xfd, 0xfe, 0x6, 0x5, 0xfc,
  0xc, 0x4, 0x3, 0xfe, 0x4, 0xf1, 0xef, 0xfa, 0xe8, 0xe6, 0xe0, 0xef,
  0xd9, 0xec, 0xde, 0xd7, 0xc8, 0xcc, 0xcf, 0xbf, 0x81, 0x96, 0x99, 0xc0,
  0xd5, 0xfb, 0x2, 0x1, 0xe8, 0xe4, 0xd5, 0xc8, 0xcd, 0xf9, 0x6, 0x9,
  0xa, 0x9, 0x2, 0x3, 0xa, 0x8, 0x13, 0xfc, 0xd5, 0xee, 0x6, 0x0,
  0xfa, 0xfe, 0x2, 0x0, 0xff, 0x5, 0x4, 0x0, 0x8f, 0xb0, 0xe6, 0x5,
  0xfb, 0x0, 0x2, 0xa, 0x4, 0xc, 0xb, 0x3, 0x4, 0x5, 0x7, 0x1,
  0x2, 0xb, 0x7, 0x3, 0x5, 0x7, 0x3, 0x3, 0x3, 0x5, 0x1, 0x9,
  0x0, 0x6, 0x8, 0x3, 0x1, 0x7, 0xb, 0x4, 0x5, 0xff, 0xfb, 0xf8,
  0xf7, 0xfa, 0xfc, 0x1, 0xfb, 0x8, 0xfe, 0x5, 0x0, 0xfd, 0x4, 0x5,
  0x7, 0xff, 0x5, 0x0, 0x7, 0x9, 0x3, 0x6, 0xa, 0x1, 0x3, 0x7,
  0xfd, 0x5, 0x0, 0xfe, 0x7, 0x2, 0xfd, 0x2, 0x3, 0xff, 0x0, 0xfd,
  0x7, 0xf7, 0xf3, 0xe4, 0xe2, 0xeb, 0xeb, 0xf1, 0xed, 0xf6, 0xf5, 0xfa,
  0xfc, 0x0, 0xfc, 0xfc, 0xf8, 0xff, 0xf7, 0xfb, 0xff, 0xf6, 0xfa, 0xf9,
  0x2, 0xfb, 0xf8, 0xfe, 0x2, 0xff, 0xfb, 0xfc, 0x1, 0xfe, 0xfc, 0xf4,
  0xf5, 0xea, 0xf5, 0xeb, 0xe7, 0xdf, 0xd7, 0xce, 0xe8, 0xe8, 0xdc, 0xe7,
  0xdc, 0xf6, 0xf1, 0x2, 0xf9, 0xf4, 0xfc, 0xa, 0xa, 0x8, 0xb, 0xa,
  0x13, 0x6, 0xc, 0x9, 0xc, 0xfa, 0xf6, 0xfd, 0xe4, 0xed, 0xe7, 0xf0,
  0xe5, 0xe9, 0xe2, 0xdf, 0xd3, 0xc6, 0xd7, 0xcf, 0x96, 0x53, 0xa4, 0x9a,
  0xf2, 0xa1, 0xf2, 0x47, 0x4b, 0x1a, 0xa3, 0xe, 0x65, 0x58, 0x94, 0xd3,
  0xf6, 0x50, 0x20, 0x26, 0xf3, 0x4, 0x88, 0x5, 0x95, 0x9a, 0xe9, 0xf8,
  0x7, 0xf6, 0x18, 0x98, 0xb7, 0xd6, 0x5a, 0x50, 0x24, 0xea, 0xe7, 0xb0,
  0xba, 0x31, 0x81, 0xd3, 0x9c, 0xe5, 0xf9, 0x1f, 0xca, 0xe2, 0xf5, 0x26,
  0xed, 0xaf, 0xb5, 0xdb, 0xb, 0xc9, 0x1b, 0xef, 0x13, 0x2b, 0x42, 0xd6,
  0x58, 0xf1, 0x8c, 0x44, 0x23, 0x3, 0xe7, 0x1a, 0xd9, 0xb3, 0x3, 0x5b,
  0x35, 0xe4, 0x88, 0x1a, 0x2e, 0xd1, 0xce, 0xa0, 0x54, 0x18, 0x30, 0xbb,
  0x43, 0xe2, 0x1e, 0xf0, 0xf3, 0x5d, 0x3a, 0xfc, 0x19, 0xee, 0xc9, 0xb4,
  0xed, 0x5f, 0xd5, 0xd7, 0x1d, 0xaf, 0xd4, 0xf7, 0xb1, 0x29, 0xe8, 0xa7,
  0x2e, 0x65, 0xcf, 0x59, 0xca, 0xc3, 0x43, 0x4f, 0xac, 0xdc, 0x2f, 0xae,
  0x84, 0xf9, 0x5e, 0x4b, 0xa1, 0x27, 0x3, 0xf1, 0xaa, 0xc, 0x3a, 0x97,
  0xe0, 0x39, 0x4a, 0xb5, 0xee, 0x5c, 0xbc, 0x20, 0x2c, 0xb1, 0xf0, 0x50,
  0xbc, 0x8a, 0xf8, 0x5e, 0x14, 0xe8, 0x50, 0x4f, 0x9b, 0xf7, 0x62, 0x3b,
  0x89, 0xb, 0xcb, 0x31, 0x1, 0x19, 0xea, 0xd0, 0x34, 0x93, 0xfa, 0xf,
  0xf9, 0x13, 0x2e, 0xca, 0xed, 0xbe, 0xb0, 0xcd, 0xcd, 0x87, 0x3d, 0xcb,
  0x95, 0x1a, 0x37, 0x5c, 0xe, 0xe0, 0x2b, 0x25, 0x7f, 0x5e, 0x6a, 0x5d,
  0x4d, 0x68, 0x3d, 0x58, 0x64, 0x6d, 0x73, 0x5e, 0x4a, 0x3c, 0x24, 0x25,
  0x28, 0x4, 0xdf, 0x4, 0x3c, 0x27, 0x1a, 0x44, 0x23, 0x5, 0x1b, 0x17,
  0x2f, 0xf2, 0xe4, 0xa, 0x3c, 0x1b, 0x9, 0xff, 0x1b, 0x2c, 0x3c, 0x3f,
  0x30, 0xfd, 0xfb, 0x33, 0x3f, 0xe, 0x2, 0x6, 0x26, 0x2d, 0x28, 0x2d,
  0x2f, 0x15, 0x18, 0x15, 0xea, 0xdc, 0xe3, 0xf4, 0xea, 0x3, 0x15, 0x23,
  0xd, 0x18, 0x24, 0x29, 0x2, 0xf, 0x15, 0xb, 0xc, 0x7, 0xd, 0xfd,
  0x3, 0xc, 0xf9, 0xf7, 0xfd, 0xf3, 0xff, 0xb, 0x11, 0x14, 0xe, 0xff,
  0x17, 0x15, 0x19, 0x5, 0xff, 0xfb, 0xe7, 0xe6, 0xde, 0xe3, 0x4, 0x11,
  0x18, 0x20, 0x27, 0x2a, 0x10, 0x1b, 0x1d, 0x9, 0xf, 0x5, 0xe5, 0xf5,
  0xf5, 0xee, 0xfe, 0x19, 0x22, 0xf, 0x2d, 0x1e, 0x22, 0x21, 0x2b, 0x2a,
  0x22, 0x35, 0x1f, 0x1d, 0x1f, 0x24, 0x18, 0xe, 0xfb, 0xff, 0xf5, 0xea,
  0x2, 0x14, 0x1b, 0x39, 0x2b, 0x30, 0x1d, 0x28, 0x1c, 0x1e, 0xe, 0x1b,
  0x1, 0x1a, 0x9, 0x3, 0xfd, 0x3f, 0x14, 0x34, 0x32, 0x2a, 0x8, 0x2f,
  0x29, 0x1d, 0x1f, 0x2e, 0xe, 0x14, 0x16, 0x27, 0x38, 0x9, 0x9, 0xf,
  0x1, 0x9, 0x13, 0x16, 0x21, 0x1d, 0x14, 0x10, 0x2c, 0x1a, 0x24, 0x13,
  0x16, 0x3d, 0x1a, 0x26, 0x16, 0x8, 0xeb, 0xed, 0x8, 0x37, 0x50, 0xfd,
  0xa3, 0xc9, 0x19, 0x87, 0xbd, 0x6, 0xb9, 0xb1, 0xed, 0x40, 0x96, 0xf,
  0x28, 0x19, 0xcf, 0xb9, 0x0, 0x13, 0xcf, 0x38, 0x1a, 0x85, 0x97, 0xda,
  0x8, 0x4a, 0x8f, 0xd6, 0x9e, 0xcb, 0xbe, 0x38, 0xf1, 0xbf, 0x5f, 0x90,
  0xa0, 0x97, 0xec, 0xb9, 0xac, 0x98, 0x20, 0x48, 0x4f, 0x4f, 0x20, 0x2e,
  0x3f, 0x9d, 0xdd, 0xd5, 0x51, 0xcb, 0x2f, 0xb9, 0x4b, 0x57, 0xe1, 0x34,
  0x85, 0xbd, 0x2a, 0x31, 0x4f, 0x97, 0x2b, 0xf8, 0xfc, 0x1, 0x10, 0x86,
  0xca, 0xaf, 0x44, 0xed, 0xee, 0x29, 0x11, 0x0, 0x39, 0xa5, 0x7, 0xce,
  0x40, 0x3b, 0x18, 0xc8, 0xd5, 0x55, 0xe8, 0x37, 0x87, 0x2d, 0x3f, 0x46,
  0xa6, 0xe6, 0x91, 0x43, 0xbf, 0x81, 0xea, 0x11, 0x39, 0xc0, 0x8d, 0x43,
  0xcb, 0xe0, 0xa9, 0xe1, 0x3b, 0xf5, 0x2, 0xc8, 0xfa, 0xf1, 0xe7, 0x29,
  0x3a, 0x9a, 0xb3, 0x1a, 0x8, 0xb1, 0x50, 0x2b, 0x22, 0x96, 0x8, 0x8b,
  0xf4, 0xc5, 0x8, 0x43, 0x1c, 0x1f, 0xde, 0xed, 0xd0, 0xea, 0x25, 0xf4,
  0x2a, 0x4b, 0x20, 0x8b, 0xdc, 0xc7, 0xf2, 0x95, 0xc6, 0xce, 0x12, 0x46,
  0xf, 0x9b, 0x98, 0x9c, 0x4d, 0x42, 0x85, 0xa9, 0xeb, 0xb9, 0x3b, 0x7,
  0xd0, 0xe0, 0x58, 0x8f, 0xa, 0xb5, 0x9a, 0x0, 0xe8, 0xde, 0x12, 0xe8,
  0x10, 0x34, 0xc8, 0xd5, 0x19, 0x59, 0x39, 0xb9, 0x76, 0x3f, 0x34, 0x18,
  0x8, 0xe0, 0xdd, 0xef, 0x10, 0x2b, 0x39, 0x70, 0xf5, 0xe4, 0xfc, 0xfe,
  0x9, 0xc, 0x19, 0xc, 0x6, 0xfd, 0xf5, 0x10, 0xe2, 0xd4, 0xb, 0xe,
  0x5, 0x1b, 0x25, 0x16, 0xd, 0x3, 0xea, 0xe2, 0x23, 0xb, 0x1d, 0xf5,
  0xe, 0x17, 0x19, 0xff, 0x10, 0xfd, 0xb, 0x1f, 0x15, 0x18, 0x18, 0x18,
  0xa, 0x11, 0x14, 0xd, 0x2c, 0x34, 0x3d, 0x1f, 0x4, 0xf, 0x9, 0xf,
  0x8, 0xb, 0x14, 0xe, 0x1e, 0x1a, 0x1a, 0xff, 0x8, 0x0, 0x20, 0xe,
  0x39, 0xee, 0xf5, 0xef, 0xfb, 0xb, 0xf, 0xb, 0xb, 0xc, 0xb, 0x0,
  0x1, 0xfe, 0xfd, 0xf, 0x9, 0x12, 0x9, 0x14, 0x23, 0xc, 0xa, 0xc,
  0xfb, 0xfd, 0x2, 0x4, 0x5, 0x10, 0x0, 0xd, 0x14, 0x7, 0x3, 0xfe,
  0xf3, 0xf9, 0x6, 0x4, 0x3, 0xf1, 0xf6, 0xfc, 0x14, 0xd, 0xd, 0x13,
  0x15, 0x1f, 0x11, 0x1c, 0xc, 0x1d, 0x19, 0x1c, 0x26, 0x2d, 0x36, 0x27,
  0xd, 0x17, 0xf, 0xe, 0x11, 0x7, 0x16, 0x6, 0x7, 0xa, 0xfc, 0xfd,
  0xee, 0xe, 0xf8, 0x6, 0x1f, 0xf6, 0x18, 0x3, 0xea, 0x0, 0x6, 0x19,
  0xfe, 0xe4, 0xc, 0xfe, 0x1d, 0xff, 0xf9, 0x4, 0x10, 0x19, 0x12, 0x21,
  0x18, 0xe, 0x16, 0xfa, 0xff, 0xc, 0x2, 0x1, 0x8, 0x27, 0x19, 0x2,
  0xc, 0xc, 0x1b, 0x19, 0x4e, 0x4b, 0x65, 0x7f, 0x81, 0x9a, 0x9f, 0xba,
  0xce, 0xf1, 0xf6, 0xec, 0xd3, 0xa9, 0x90, 0x81, 0xad, 0xe9, 0xff, 0xb,
  0x8, 0xc, 0x3, 0x6, 0x7, 0x6, 0xf1, 0xbd, 0xfa, 0x11, 0xd, 0x7,
  0xa, 0x8, 0x3, 0x3, 0x7, 0x2, 0xff, 0xca, 0xc7, 0xe2, 0xf8, 0x4,
  0x4, 0x2, 0xfc, 0x6, 0x2, 0x0, 0xe4, 0xcf, 0xd2, 0xdc, 0xe9, 0xf3,
  0xf7, 0xfd, 0xfa, 0xf9, 0xf1, 0xf3, 0xeb, 0xec, 0x9, 0x8, 0x2, 0x4,
  0x4, 0x0, 0x1, 0x2, 0xfd, 0xf5, 0xf8, 0xf7, 0xe7, 0xf0, 0xe0, 0xdd,
  0xd3, 0xf1, 0xf6, 0xfd, 0xff, 0xfe, 0xfb, 0x7, 0x3, 0x8, 0xc, 0xd,
  0x4, 0x9, 0x5, 0x9, 0x2, 0x9, 0x2, 0x8, 0x6, 0x8, 0xfd, 0x6,
  0x4, 0xff, 0xf9, 0x1, 0x5, 0xfe, 0x1, 0xfc, 0xfe, 0x1, 0xfe, 0xfa,
  0xf7, 0xf1, 0xe5, 0xec, 0xfe, 0xf6, 0xfd, 0x2, 0x7, 0x2, 0x0, 0x2,
  0x3, 0x8, 0xa, 0x1, 0x1, 0x3, 0x1, 0x5, 0x5, 0x2, 0xfd, 0xff,
  0x2, 0xff, 0xff, 0x4, 0x3, 0x7, 0x1, 0x3, 0x5, 0x4, 0x5, 0x2,
  0x0, 0xf7, 0xfb, 0xed, 0xec, 0xeb, 0xef, 0xea, 0xf9, 0xf9, 0xff, 0xfd,
  0xf4, 0x5, 0x1, 0xff, 0xf9, 0x5, 0xd, 0x5, 0xb, 0x9, 0x7, 0x6,
  0xe, 0x7, 0xb, 0xf, 0xc, 0x7, 0x8, 0x5, 0x1, 0xfd, 0xfd, 0x4,
  0xf6, 0xf5, 0xf7, 0xec, 0xe6, 0xea, 0xdb, 0xde, 0x7, 0xb3, 0xdb, 0xa5,
  0xc1, 0xff, 0xe1, 0xf7, 0xdc, 0xb8, 0xd0, 0xdb, 0x8c, 0x2f, 0xa, 0x43,
  0x4f, 0x29, 0x16, 0x56, 0x4e, 0x5e, 0x30, 0xf9, 0x38, 0x65, 0x7f, 0x7a,
  0x58, 0x13, 0x24, 0x26, 0x4f, 0x56, 0x29, 0x19, 0xf1, 0xa, 0x3a, 0x33,
  0x52, 0x4, 0x14, 0x48, 0x50, 0x13, 0xf6, 0xc, 0xf3, 0xc, 0x25, 0x56,
  0x3a, 0x54, 0x49, 0x22, 0xb, 0x1c, 0x25, 0x26, 0x1f, 0x37, 0x65, 0x46,
  0x59, 0x76, 0x5a, 0x4d, 0x2a, 0x10, 0x4, 0xe3, 0xdd, 0xfb, 0xf1, 0x8c,
  0xb6, 0xb6, 0xc8, 0xba, 0xf4, 0x18, 0x48, 0x24, 0x38, 0x5a, 0x39, 0x46,
  0x57, 0x4e, 0x48, 0x23, 0xf, 0x8, 0x17, 0xe, 0x1d, 0x4, 0x9, 0x29,
  0x43, 0x54, 0x3c, 0x4c, 0x53, 0x4c, 0x32, 0x3e, 0x17, 0x10, 0xd6, 0x1,
  0xfa, 0xdd, 0xd3, 0xac, 0xbd, 0x9e, 0xe3, 0xe2, 0x18, 0xf8, 0x34, 0x3b,
  0xff, 0x52, 0x1a, 0x28, 0x36, 0x43, 0xc, 0x0, 0x29, 0x1e, 0x2d, 0xf9,
  0x7, 0x30, 0x22, 0x35, 0x2d, 0x4c, 0x2d, 0x2e, 0x2, 0x1c, 0xfb, 0xed,
  0xc1, 0xbe, 0xd9, 0x9b, 0xb5, 0xba, 0xac, 0x9c, 0x82, 0xbd, 0xb6, 0xcc,
  0xcc, 0xc6, 0xca, 0xbd, 0xde, 0xeb, 0x10, 0xfb, 0xf3, 0x1e, 0x24, 0xd,
  0xd, 0x8, 0xf9, 0xd8, 0xf2, 0xc8, 0xda, 0xe1, 0xbb, 0xd2, 0xe3, 0xd2,
  0xc8, 0xf0, 0xe1, 0xd6, 0x7, 0xfb, 0xfd, 0xe0, 0x59, 0x2a, 0x38, 0x33,
  0x26, 0x42, 0x2e, 0x38, 0x5c, 0x51, 0x5e, 0x52, 0x2a, 0x27, 0x22, 0x2e,
  0x33, 0x1b, 0x11, 0x23, 0x4d, 0x41, 0x37, 0x35, 0xfc, 0xff, 0x2e, 0x2f,
  0x23, 0x12, 0x7, 0x19, 0x2e, 0x2f, 0x14, 0x11, 0x1c, 0x16, 0x2a, 0x34,
  0x37, 0x20, 0x10, 0x2a, 0x44, 0x37, 0x25, 0x34, 0x2b, 0x30, 0x42, 0x3f,
  0x3d, 0x45, 0x3b, 0x31, 0x2e, 0x30, 0x4a, 0x64, 0xbd, 0xcf, 0xe0, 0xe3,
  0xdc, 0xde, 0xe2, 0xd9, 0xd9, 0xd6, 0xb3, 0xb6, 0xb2, 0xb0, 0xc4, 0xae,
  0xb0, 0xa1, 0xaf, 0xa3, 0xb6, 0xc1, 0xd5, 0xc7, 0xc5, 0xde, 0xc0, 0xd4,
  0xe3, 0xe2, 0xdc, 0xe7, 0xd8, 0xdc, 0xca, 0xde, 0xc9, 0xcd, 0xca, 0xeb,
  0xfb, 0x5, 0x1, 0x9, 0xa, 0xfd, 0xe6, 0xdf, 0xd5, 0xd2, 0xb5, 0xb5,
  0x9c, 0xa1, 0xa6, 0x8d, 0xa4, 0x9e, 0xa7, 0xab, 0xb3, 0xa7, 0xb5, 0xc1,
  0xc7, 0xd9, 0xd6, 0xdc, 0xdb, 0xe8, 0xf0, 0xf9, 0xf3, 0xe9, 0xd1, 0xe6,
  0xdf, 0xeb, 0xe5, 0xf0, 0xe8, 0xe9, 0xdc, 0xc6, 0xc6, 0xc5, 0xa5, 0xa0,
  0x97, 0x88, 0x82, 0x8f, 0x81, 0x94, 0xa1, 0xa6, 0x98, 0x8c, 0x87, 0x97,
  0x97, 0x8d, 0x9b, 0x8d, 0x8e, 0xa4, 0x8d, 0x91, 0x9a, 0x9a, 0x9e, 0xa2,
  0x9d, 0xa5, 0xa3, 0x9f, 0xa7, 0x99, 0x98, 0x98, 0x92, 0x92, 0x9b, 0x99,
  0x8e, 0x9b, 0x9b, 0x8d, 0x9c, 0xa3, 0x9f, 0x87, 0x81, 0x8b, 0xa1, 0xac,
  0xc6, 0xfb, 0xfa, 0xed, 0xde, 0xb6, 0xa8, 0xa9, 0xc5, 0x18, 0xa, 0xc,
  0x6, 0xe, 0xfd, 0xb, 0x18, 0x27, 0x27, 0xe5, 0x2d, 0x50, 0x1b, 0x16,
  0x5, 0x0, 0xfd, 0x9, 0x4, 0xc, 0x1a, 0xa, 0xf1, 0x6, 0x1, 0xfa,
  0x5, 0xf5, 0xf6, 0xf7, 0xfd, 0x4, 0x7, 0x4, 0xe1, 0xed, 0xf0, 0xf7,
  0x3, 0x4, 0x6, 0xfd, 0xfe, 0x4, 0xfd, 0xf8, 0x9, 0xe, 0xa, 0x0,
  0xd, 0x2, 0x2, 0x7, 0x4, 0xf6, 0xff, 0xf, 0x4, 0x4, 0xfc, 0xef,
  0xee, 0xfb, 0x17, 0x0, 0x1e, 0x23, 0xf, 0x7, 0x9, 0x5, 0x17, 0x8,
  0xd, 0xb, 0xb, 0x0, 0x2, 0x0, 0xf6, 0x0, 0x1, 0x7, 0xf6, 0x1,
  0xfc, 0xf1, 0x3, 0xff, 0x7, 0x7, 0x6, 0xff, 0x6, 0x9, 0x1d, 0x10,
  0x28, 0x15, 0xc, 0xf5, 0xf7, 0xf2, 0xf4, 0xc, 0x6, 0xe9, 0x3, 0x0,
  0xef, 0xf8, 0xf8, 0xf6, 0x5, 0xfa, 0xfe, 0xfa, 0xf4, 0xed, 0xf7, 0xf4,
  0xf5, 0x0, 0xf6, 0xfb, 0xf5, 0xf6, 0x1, 0x5, 0x2, 0xe, 0x14, 0x1,
  0x14, 0xfd, 0xc, 0xd, 0x15, 0xdf, 0xe3, 0xdb, 0xe5, 0xe8, 0x10, 0xf6,
  0xfb, 0x1c, 0xfe, 0x0, 0x10, 0x2a, 0x23, 0xd, 0xfe, 0x21, 0x22, 0x22,
  0x18, 0xe, 0x2, 0x3, 0xb, 0x2, 0x6, 0x9, 0xff, 0xfb, 0xa, 0x24,
  0x1d, 0x10, 0x14, 0x1e, 0xf, 0x19, 0x20, 0xfd, 0x8a, 0xb1, 0xb2, 0xc2,
  0xd3, 0xf2, 0xe5, 0xdc, 0xd5, 0xb4, 0x9f, 0x91, 0xae, 0xdf, 0xf2, 0x4,
  0xee, 0xf2, 0xf9, 0xec, 0x8, 0x0, 0xe1, 0x9c, 0xd0, 0xfd, 0xf4, 0xf7,
  0x0, 0xff, 0xfa, 0xc, 0xf9, 0xff, 0xf8, 0xc3, 0xa5, 0xc1, 0xd5, 0xed,
  0xe9, 0x2, 0xf9, 0xf6, 0xfa, 0x3, 0xda, 0xcd, 0xe6, 0xe6, 0xdd, 0xed,
  0xf3, 0xec, 0xf7, 0xe3, 0xe6, 0xde, 0xe3, 0xe9, 0xff, 0x3, 0xf1, 0xf9,
  0x1, 0x0, 0xff, 0xf3, 0xf7, 0xed, 0xe7, 0xf2, 0xf2, 0xf2, 0xc7, 0xd9,
  0xb6, 0x4, 0x22, 0x16, 0x25, 0x21, 0xd, 0x7, 0xf, 0x13, 0x11, 0x1c,
  0x13, 0x7, 0x7, 0xa, 0x7, 0x10, 0x3, 0x3, 0xf9, 0xfc, 0x3, 0xc,
  0x5, 0xd, 0xfe, 0x6, 0xe, 0xf4, 0xfb, 0xf9, 0xfb, 0xf4, 0x28, 0x25,
  0x27, 0x22, 0x12, 0xe1, 0xf7, 0x7, 0xfe, 0x3, 0xfb, 0xe6, 0xec, 0x2,
  0xfb, 0xfe, 0x6, 0xfe, 0xa, 0x2, 0xfc, 0xf8, 0xf5, 0xec, 0xf6, 0xef,
  0xf9, 0xfe, 0x7, 0x0, 0x2, 0x6, 0x12, 0x1, 0x19, 0x15, 0x1a, 0x10,
  0x1b, 0x0, 0x12, 0x7, 0x7, 0xc5, 0xd5, 0xbc, 0xe4, 0xd4, 0xf6, 0xd9,
  0xde, 0x3, 0xf6, 0xe4, 0xed, 0x16, 0xd, 0xfa, 0xe9, 0xf, 0xfd, 0x6,
  0x0, 0x3, 0x5, 0xfd, 0x5, 0x1, 0xf5, 0xfb, 0xdf, 0xc8, 0xe4, 0xc,
  0xf7, 0xe1, 0xe7, 0xc9, 0xbc, 0xc3, 0xb6, 0x81, 0x92, 0x5, 0x25, 0x1f,
  0x91, 0xd, 0x4e, 0x6b, 0xbc, 0x25, 0xe4, 0x89, 0xa0, 0x59, 0x14, 0x93,
  0x4e, 0x8d, 0xe9, 0x9, 0x42, 0xa1, 0xc6, 0xd, 0xc1, 0xed, 0xb7, 0xc8,
  0xf3, 0xba, 0xf1, 0x2a, 0xb0, 0x1b, 0x5e, 0x4, 0xee, 0xa1, 0xa9, 0xbc,
  0x55, 0x16, 0xc0, 0x53, 0xf0, 0x56, 0x98, 0xbd, 0xec, 0xac, 0x96, 0xe5,
  0x6b, 0x83, 0x23, 0x4e, 0xcb, 0x20, 0x37, 0xdf, 0xec, 0x18, 0xb9, 0x8b,
  0x69, 0x2, 0xdb, 0xd5, 0x2c, 0xa3, 0x2f, 0x29, 0x59, 0x91, 0xf1, 0x2f,
  0x1f, 0x1b, 0x62, 0x85, 0x99, 0x1c, 0x9, 0xa0, 0xf, 0x2d, 0xe8, 0x64,
  0x68, 0xf5, 0x11, 0x86, 0x39, 0xfc, 0xb8, 0x30, 0x88, 0x4f, 0xb7, 0xb3,
  0x2c, 0x34, 0x3d, 0xa1, 0xf8, 0x4c, 0x46, 0xcc, 0x9d, 0xf1, 0xbc, 0xf9,
  0x12, 0xf1, 0xa2, 0xb4, 0xb0, 0x5b, 0x68, 0xc9, 0xca, 0xc3, 0xe9, 0xec,
  0xeb, 0x93, 0x62, 0xd9, 0x48, 0xf9, 0x9b, 0x83, 0x12, 0x9f, 0xce, 0xa5,
  0xea, 0x5e, 0x3c, 0x41, 0xf7, 0x35, 0x48, 0xe7, 0x3a, 0xd6, 0x81, 0x30,
  0x38, 0xc9, 0xe9, 0x8f, 0xca, 0x15, 0x8, 0xb2, 0x23, 0xac, 0x6c, 0x1,
  0xda, 0xc3, 0x5, 0xb, 0x2c, 0xb5, 0x24, 0xbb, 0xb9, 0x41, 0x6c, 0x1,
  0xea, 0xf3, 0x83, 0xb0, 0x29, 0xef, 0xdb, 0x14, 0xe6, 0x67, 0x93, 0x1f,
  0x1f, 0xe7, 0x6, 0xbd, 0x19, 0x60, 0xeb, 0x68, 0xee, 0xde, 0x12, 0x9c,
  0xd2, 0x59, 0xdf, 0x2c, 0x29, 0x34, 0xac, 0xc3, 0xa3, 0x5f, 0x61, 0x1a,
  0x96, 0xe1, 0xa9, 0xd4, 0x5e, 0xae, 0xca, 0x54, 0x90, 0xb1, 0xf7, 0x94,
  0x26, 0xa7, 0x9c, 0x1e, 0xd1, 0xd1, 0xa7, 0xd5, 0x31, 0x84, 0x46, 0xc3,
  0x2e, 0x59, 0x26, 0xe1, 0x18, 0xd3, 0x5, 0x8e, 0x50, 0xe4, 0xe3, 0x53,
  0x5c, 0xa9, 0xc2, 0xd8, 0x18, 0xa5, 0x81, 0x45, 0x94, 0xd1, 0x61, 0x1f,
  0x46, 0xf0, 0x65, 0xd8, 0x7, 0x28, 0xe7, 0x2d, 0xc4, 0xbf, 0x50, 0x58,
  0x99, 0x57, 0xfb, 0x30, 0x8a, 0xcf, 0x32, 0x84, 0xfa, 0x9e, 0x14, 0xe0,
  0xc6, 0x20, 0xe9, 0x53, 0x11, 0xa2, 0xd5, 0x3c, 0x54, 0x41, 0xbf, 0xd7,
  0xc3, 0xec, 0x85, 0xb5, 0xe3, 0x39, 0x9e, 0x9a, 0xa3, 0xf1, 0x84, 0x51,
  0x1f, 0x26, 0xd8, 0xb7, 0xab, 0x10, 0xa4, 0xba, 0x98, 0x11, 0x8d, 0xc0,
  0x9, 0xa, 0x94, 0x8e, 0x56, 0x9d, 0xaf, 0xa6, 0x55, 0xae, 0x35, 0x4e,
  0xee, 0x44, 0x45, 0x22, 0xa1, 0x5d, 0xfa, 0x5f, 0xd6, 0xd, 0xf3, 0xe4,
  0x4a, 0x12, 0x53, 0x13, 0xde, 0xa1, 0x17, 0x6f, 0x34, 0x54, 0x4a, 0xe7,
  0x2a, 0xc0, 0x10, 0x68, 0xbe, 0x98, 0xfc, 0x5d, 0x4d, 0x23, 0x23, 0x22,
  0x4f, 0x65, 0xeb, 0xab, 0xf5, 0x47, 0x32, 0x5f, 0x32, 0xa2, 0xb0, 0x8a,
  0xa3, 0x8b, 0x4d, 0xc7, 0x9d, 0x98, 0x38, 0x4c, 0xfa, 0xf9, 0xfc, 0x9,
  0xf2, 0xf1, 0xf0, 0xf2, 0xfa, 0x4, 0xff, 0xf9, 0xfe, 0xf2, 0xe5, 0xf2,
  0xe7, 0xed, 0xea, 0xe7, 0xd0, 0xc2, 0xbf, 0xc6, 0xcb, 0xca, 0xaa, 0xbf,
  0xcc, 0xd2, 0xd0, 0xd7, 0xb9, 0xa4, 0x9e, 0x9d, 0xa4, 0x92, 0x81, 0xd6,
  0xcd, 0xdc, 0xe0, 0xe5, 0xe1, 0xe9, 0xe6, 0xfe, 0xd, 0x3, 0x1, 0xf2,
  0xf3, 0xf8, 0xf6, 0xfd, 0xf8, 0xf0, 0xf9, 0x6, 0xf6, 0xf8, 0x6, 0xf8,
  0xf7, 0xef, 0xf1, 0xf2, 0xf0, 0xea, 0xf9, 0xef, 0xda, 0xe3, 0xc4, 0xcd,
  0xab, 0x8, 0x4, 0xb, 0x1f, 0x10, 0x6, 0x6, 0xe, 0x6, 0xb, 0x8,
  0x3, 0xb, 0x1, 0x9, 0x4, 0x5, 0x4, 0xfa, 0x1, 0xff, 0x5, 0xc,
  0xa, 0x7, 0x5, 0xf, 0xf, 0x0, 0xe, 0xfd, 0x9, 0xd, 0x12, 0x1,
  0xa, 0xf0, 0xe7, 0xf6, 0x2, 0x8, 0xf, 0xc, 0xa, 0x7, 0x5, 0x8,
  0xa, 0xf9, 0x0, 0xfe, 0x3, 0xf9, 0x8, 0xff, 0xfb, 0xf4, 0xf8, 0xf8,
  0x1, 0x1, 0x8, 0x6, 0xff, 0x7, 0xfb, 0x1, 0x5, 0xf, 0x5, 0x9,
  0xe, 0x7, 0x4, 0xfd, 0xf1, 0xf9, 0xea, 0xef, 0xfd, 0xf6, 0xf3, 0xdf,
  0xee, 0xf2, 0xe7, 0xef, 0xea, 0xf8, 0xf6, 0xe5, 0xe6, 0xf0, 0xe5, 0xe3,
  0xf3, 0xe8, 0xea, 0xf6, 0xf0, 0xf5, 0xf7, 0xe6, 0xe7, 0xe7, 0xe8, 0xf1,
  0xe5, 0xe7, 0xe1, 0xd6, 0xbf, 0xcb, 0xb7, 0xa9, 0x63, 0x46, 0x13, 0x11,
  0x9e, 0xca, 0xa5, 0xef, 0x5c, 0x8e, 0x83, 0x4b, 0xf3, 0xe4, 0x1b, 0x17,
  0x38, 0xc0, 0x92, 0x26, 0xe3, 0x20, 0x11, 0x29, 0x85, 0xee, 0x0, 0xea,
  0xf6, 0xaf, 0x8, 0x47, 0x21, 0xdd, 0x8, 0x86, 0xfe, 0xf2, 0x26, 0xec,
  0xec, 0xe2, 0x8, 0x3c, 0x9b, 0xbe, 0x82, 0xe8, 0x1c, 0xd5, 0x53, 0x52,
  0xc3, 0x31, 0xd5, 0xd5, 0x8c, 0x33, 0x43, 0x3, 0xc5, 0x47, 0x9e, 0x8a,
  0x89, 0x4f, 0x47, 0x1e, 0x2, 0x31, 0xc0, 0x31, 0xe, 0x37, 0xe0, 0x30,
  0x56, 0x81, 0x20, 0x5, 0x9f, 0xea, 0xce, 0x84, 0x2e, 0xbf, 0xde, 0x83,
  0x56, 0x93, 0xf0, 0x3a, 0xb4, 0x7, 0xa6, 0xef, 0x21, 0x43, 0xbb, 0x3,
  0x5e, 0xb4, 0x2, 0x11, 0xa1, 0xd, 0xf2, 0x49, 0x9c, 0x91, 0x39, 0xb6,
  0x19, 0x13, 0xf6, 0xe9, 0xb1, 0x1c, 0x35, 0xc1, 0x49, 0xfe, 0x4a, 0x91,
  0x20, 0x95, 0x23, 0xcf, 0xe5, 0x2b, 0xaf, 0x19, 0x7, 0x9a, 0x97, 0x1d,
  0xb, 0x58, 0x1, 0x17, 0x46, 0x5f, 0x55, 0xb, 0x46, 0x8, 0xba, 0x8d,
  0xd, 0xf4, 0xab, 0xe7, 0xdf, 0xc8, 0xa7, 0x9d, 0xa8, 0xca, 0xdd, 0xff,
  0xb, 0x95, 0x8c, 0xc8, 0x52, 0x92, 0x4d, 0x31, 0x8b, 0xbd, 0x25, 0x52,
  0x1d, 0xda, 0xb2, 0x5c, 0x4b, 0x3f, 0xa6, 0xff, 0xf5, 0xbb, 0x3f, 0x3c,
  0xb3, 0xea, 0x4f, 0xb3, 0x40, 0x7, 0x16, 0x2f, 0xfe, 0x7, 0xe2, 0xf7,
  0xee, 0xe3, 0xe8, 0xd4, 0xc6, 0xd3, 0xbd, 0xb8, 0xda, 0xdc, 0xdd, 0xd6,
  0xd9, 0xe6, 0xdc, 0xc5, 0xd6, 0xca, 0xd9, 0xf9, 0xec, 0x7, 0xb, 0xe,
  0x5, 0xfe, 0xf3, 0xfe, 0xf, 0xf8, 0x26, 0xb, 0x17, 0x13, 0x41, 0x22,
  0x1a, 0xb, 0x23, 0x1b, 0x1d, 0x2c, 0x14, 0x13, 0xf8, 0xfe, 0x5, 0x0,
  0x5, 0x6, 0x6, 0x6, 0xf7, 0xff, 0xf5, 0xee, 0xf6, 0xa, 0x1e, 0x16,
  0x1e, 0xa, 0x1d, 0x13, 0x18, 0x26, 0x1e, 0x21, 0x22, 0x23, 0x27, 0xfc,
  0x1c, 0x2c, 0x3d, 0x2c, 0x2e, 0x21, 0x2c, 0x3a, 0x1e, 0x2a, 0x20, 0xd,
  0x14, 0xf, 0x14, 0x15, 0xff, 0x2, 0x0, 0x11, 0xf, 0xfb, 0x12, 0x13,
  0xe, 0x18, 0x15, 0xe, 0x2d, 0x2b, 0x21, 0x28, 0x1e, 0x22, 0x1f, 0x9,
  0x1, 0x3, 0x0, 0x3a, 0x3a, 0x3a, 0x29, 0x25, 0x35, 0x36, 0x1d, 0x2d,
  0x10, 0x5, 0xd, 0x11, 0xb, 0x14, 0x0, 0x9, 0xfe, 0x4, 0x4, 0x7,
  0xf7, 0x8, 0x4, 0x11, 0x16, 0xf, 0x9, 0x21, 0x1b, 0x10, 0x16, 0x16,
  0x5, 0x11, 0xf5, 0xea, 0xea, 0x7f, 0x6d, 0x67, 0x67, 0x52, 0x47, 0x41,
  0x31, 0x13, 0x3, 0xe, 0x19, 0x15, 0x7, 0x1, 0xec, 0xf6, 0xec, 0xdd,
  0xe6, 0xd2, 0xd9, 0xdc, 0xda, 0xee, 0xc, 0xe8, 0x6, 0xfe, 0x12, 0xc,
  0xc, 0xf9, 0x1, 0x15, 0x1b, 0x18, 0xf, 0xd, 0x73, 0x53, 0x62, 0x48,
  0x33, 0x6e, 0x3f, 0x56, 0x6b, 0x68, 0x7f, 0x53, 0x4c, 0x39, 0x2e, 0x1c,
  0x24, 0xfc, 0xbf, 0x0, 0x3e, 0x28, 0x1b, 0x30, 0xa, 0xff, 0x9, 0x25,
  0x21, 0xe0, 0xb5, 0xa, 0x3e, 0xf, 0xfd, 0xe0, 0xef, 0xf5, 0xd, 0x45,
  0x3c, 0xe1, 0xe0, 0x30, 0x32, 0x20, 0x1c, 0xb, 0x3e, 0x2c, 0x24, 0x2a,
  0x23, 0x20, 0xe, 0x12, 0xf8, 0xe6, 0xf3, 0x9, 0x9, 0x15, 0x5, 0x27,
  0x22, 0x33, 0x25, 0x1e, 0xff, 0xc, 0x4, 0x1a, 0x0, 0xfc, 0x4, 0x3,
  0xd0, 0x8, 0xfc, 0xf4, 0x15, 0x4, 0x1, 0x1a, 0x1a, 0x25, 0xf, 0x9,
  0x9, 0x12, 0x16, 0xe, 0x10, 0xfe, 0xec, 0xd6, 0xe0, 0xdf, 0xf1, 0x13,
  0x2e, 0x21, 0x2b, 0x26, 0x10, 0x2b, 0x2c, 0x17, 0x28, 0x5, 0xf4, 0x5,
  0xfb, 0xf4, 0xfd, 0xfc, 0xb, 0x10, 0x3d, 0x27, 0x33, 0x11, 0x2c, 0x2f,
  0x20, 0x29, 0x19, 0x22, 0x1b, 0x1b, 0x18, 0xf7, 0xe8, 0xe5, 0xda, 0xda,
  0x1, 0x6, 0x14, 0x26, 0x32, 0x39, 0x19, 0x29, 0x10, 0x24, 0x17, 0x27,
  0x3, 0x23, 0x17, 0xe6, 0xf0, 0x40, 0xfe, 0x11, 0x1f, 0x22, 0x0, 0x37,
  0x16, 0x17, 0x15, 0x1d, 0x15, 0x2, 0x1f, 0x35, 0x23, 0xb, 0x1b, 0x1,
  0x6, 0x5, 0xe, 0x22, 0x31, 0x22, 0x1a, 0x1b, 0x23, 0x14, 0x1a, 0x25,
  0x14, 0x47, 0x27, 0xf, 0xf9, 0xf5, 0xd0, 0xc3, 0x84, 0x81, 0x96, 0x9e,
  0xc3, 0xf5, 0x6, 0xf3, 0xeb, 0xc1, 0xa4, 0x84, 0xb4, 0x20, 0x5, 0x1e,
  0x14, 0xb, 0x8, 0x17, 0x2a, 0x24, 0x2f, 0xfd, 0x30, 0x5f, 0x33, 0x17,
  0xc, 0x3, 0xf6, 0x10, 0x13, 0x23, 0x2b, 0x30, 0xf8, 0xd, 0x1, 0x6,
  0x3, 0x6, 0xff, 0x7, 0x5, 0x10, 0xb, 0xb, 0xe8, 0xee, 0xf5, 0x0,
  0xa, 0x15, 0x8, 0x0, 0xfc, 0xf6, 0xfe, 0xf9, 0xb, 0xf, 0x17, 0x9,
  0x18, 0x1a, 0x1b, 0x2, 0xf, 0x1, 0xfa, 0x10, 0xfb, 0xf, 0xa, 0xe4,
  0xeb, 0xfe, 0xc, 0xf5, 0x14, 0x17, 0x1b, 0x10, 0xd, 0x1a, 0xa, 0x11,
  0xb, 0xc, 0x7, 0xf6, 0x6, 0xfd, 0xfa, 0x1, 0xfb, 0x3, 0xfe, 0x6,
  0x7, 0x3, 0xfb, 0xe, 0x11, 0xd, 0xff, 0x14, 0xc, 0xd, 0x1a, 0xd,
  0x27, 0x19, 0x1d, 0xe6, 0xfe, 0xef, 0xf6, 0xff, 0xfc, 0xf4, 0xf8, 0xf6,
  0xf8, 0x4, 0xf6, 0xf4, 0xf7, 0xf0, 0xf3, 0xf0, 0xff, 0xeb, 0xed, 0xf2,
  0xf3, 0x6, 0xfe, 0xf5, 0xff, 0xfd, 0xfd, 0x14, 0x9, 0x8, 0x10, 0x3,
  0x1, 0xf6, 0x2, 0xfe, 0x4, 0xd1, 0xc8, 0xc4, 0xd4, 0xe9, 0xe5, 0xe9,
  0xf3, 0xfd, 0xef, 0xe5, 0xfd, 0x11, 0x1a, 0xc, 0xfa, 0x1a, 0x1c, 0x21,
  0x1f, 0xa, 0x0, 0xc, 0xa, 0xf5, 0xff, 0x3, 0xe8, 0xf7, 0xfe, 0x17,
  0xfb, 0xfc, 0x7, 0xf0, 0xfd, 0x3, 0x7, 0xef, 0x61, 0x31, 0x25, 0x2,
  0xd, 0xe7, 0xe4, 0xe7, 0x8, 0x24, 0x31, 0x59, 0xf9, 0xe4, 0xf9, 0xc,
  0x0, 0xb, 0x29, 0x3, 0xf4, 0xfd, 0xf0, 0x1a, 0xe7, 0xd8, 0x6, 0x11,
  0xfb, 0x17, 0x2c, 0xa, 0xf8, 0x12, 0xf8, 0xf2, 0x20, 0x15, 0x16, 0xf8,
  0x9, 0x22, 0x1a, 0xf9, 0xf9, 0xf8, 0xf7, 0x12, 0xb, 0x5, 0x14, 0x1e,
  0x0, 0x12, 0xa, 0x9, 0x22, 0x2a, 0x22, 0x18, 0xfa, 0xf9, 0x9, 0xff,
  0x4, 0xa, 0x7, 0x6, 0xb, 0x4, 0x8, 0xf2, 0xfc, 0x9, 0x1e, 0x13,
  0x2d, 0xea, 0xa, 0xf6, 0xec, 0x2, 0x7, 0x1, 0xfa, 0x6, 0xfe, 0x7,
  0xf9, 0x4, 0x7, 0xfe, 0x2, 0x6, 0x12, 0x19, 0x1f, 0x4, 0x8, 0x8,
  0x5, 0xfc, 0x0, 0xf7, 0x8, 0x7, 0xf, 0xd, 0xc, 0xfa, 0xf4, 0x0,
  0x7, 0xfb, 0xfc, 0x8, 0xe, 0xf5, 0xfc, 0xa, 0xd, 0x8, 0x1a, 0x8,
  0xf, 0x10, 0x11, 0x15, 0x1c, 0x16, 0x10, 0x18, 0x26, 0x23, 0x34, 0x1f,
  0x7, 0x1f, 0x12, 0x3, 0xa, 0x0, 0x11, 0x16, 0x13, 0xf8, 0x2, 0x2,
  0xf3, 0xf6, 0xf2, 0x3, 0x25, 0x1, 0xe, 0x1, 0xf5, 0xf7, 0x12, 0x20,
  0x3, 0xf8, 0x11, 0x6, 0x1b, 0xb, 0x9, 0xe, 0x14, 0x8, 0x10, 0x24,
  0xd, 0xf, 0xd, 0x3, 0x5, 0xff, 0xe, 0x10, 0x9, 0x1c, 0x1b, 0xfc,
  0x21, 0xff, 0x1b, 0x26, 0x54, 0x57, 0x7a, 0x7f, 0x7f, 0x4d, 0x57, 0x33,
  0x25, 0x11, 0x11, 0x16, 0x26, 0x4a, 0x55, 0x64, 0x2c, 0x4, 0x9, 0x9,
  0x10, 0xff, 0x15, 0xf, 0x10, 0x5, 0x0, 0x33, 0xfb, 0xd9, 0x6, 0x7,
  0xa, 0x13, 0xa, 0x11, 0x15, 0x11, 0xf2, 0xff, 0x31, 0x2c, 0x31, 0x18,
  0x16, 0x1a, 0x1a, 0xf, 0x19, 0xb, 0x8, 0x16, 0x12, 0x17, 0x12, 0xd,
  0xa, 0x11, 0x15, 0x15, 0x7, 0x11, 0x11, 0xc, 0xf2, 0x1, 0xfb, 0xa,
  0xa, 0x6, 0xff, 0xf, 0x7, 0xe, 0x7, 0x4, 0xf8, 0x3, 0x12, 0x9,
  0x1d, 0xfa, 0xf1, 0xf8, 0xe6, 0xee, 0xf9, 0xf9, 0xff, 0xfd, 0xfb, 0xff,
  0x1, 0xf4, 0xff, 0xff, 0xf7, 0xfe, 0x1, 0x0, 0x2, 0xf1, 0xfe, 0x2,
  0xf9, 0xff, 0x0, 0x2, 0xfb, 0x3, 0x6, 0x8, 0x4, 0x2, 0xf0, 0xf7,
  0xed, 0xe4, 0xf8, 0x16, 0xfd, 0x9, 0x2, 0xfc, 0x1, 0xf, 0x13, 0x11,
  0x12, 0x13, 0x7, 0xd, 0x13, 0x13, 0x16, 0x10, 0xb, 0x14, 0xd, 0xc,
  0xc, 0x7, 0x9, 0x12, 0xf, 0x8, 0x4, 0x3, 0xa, 0x7, 0x6, 0xfc,
  0xf5, 0x6, 0xfe, 0x9, 0xa, 0xf, 0x19, 0x14, 0xb, 0x1b, 0x1, 0x2a,
  0x9, 0xfa, 0x18, 0xf, 0xc, 0xf6, 0xf9, 0xc, 0x11, 0x2, 0x9, 0x9,
  0x4, 0x7, 0xd, 0xb, 0x6, 0xff, 0x8, 0xf, 0xd, 0x14, 0x1c, 0xf4,
  0x3, 0x9, 0x11, 0x1c, 0x28, 0x2b, 0x34, 0x3f, 0x3f, 0x24, 0x4b, 0x43,
  0x55, 0x7f, 0x69, 0x6e, 0x5b, 0x40, 0x4e, 0x9, 0x3c, 0x69, 0x48, 0x3e,
  0x5b, 0x20, 0xe7, 0x21, 0x4d, 0x44, 0x3a, 0x40, 0x50, 0x62, 0x50, 0x48,
  0x49, 0x2, 0xdd, 0x15, 0x4d, 0x3b, 0x2d, 0x3e, 0x20, 0x1d, 0x3b, 0x5d,
  0x4b, 0xf8, 0xfa, 0x45, 0x5a, 0x2a, 0x1c, 0xb, 0x10, 0xfd, 0xc, 0xa,
  0x9, 0xd, 0x8, 0x7, 0xf6, 0xf2, 0xe2, 0xf1, 0xb, 0x11, 0xf8, 0x7,
  0xfb, 0x6, 0x19, 0x16, 0xf0, 0x9, 0x4, 0x1, 0xfc, 0xa, 0x1, 0xed,
  0xd5, 0xf, 0xe, 0x1a, 0x12, 0xb, 0x10, 0x3, 0x1a, 0xa, 0xfe, 0xa,
  0x16, 0xc, 0x15, 0x13, 0x8, 0xf7, 0xee, 0xef, 0xed, 0xdb, 0xee, 0x5,
  0xe, 0xd, 0x18, 0xf, 0xf4, 0x9, 0xe, 0xc, 0xf9, 0xfd, 0x1, 0xfa,
  0x10, 0x1, 0xff, 0x4, 0x16, 0xfd, 0x35, 0x13, 0xe, 0xf6, 0x2, 0xf8,
  0xf2, 0x15, 0x4, 0xf6, 0x13, 0xf8, 0xff, 0x6, 0xf4, 0xe2, 0xd2, 0xdb,
  0xe, 0x4, 0x1a, 0x25, 0x16, 0x18, 0x16, 0x11, 0x8, 0xf, 0xff, 0x2,
  0xe3, 0x7, 0xe, 0xde, 0xdd, 0x13, 0xec, 0xed, 0xe0, 0x5, 0xee, 0xd,
  0xdd, 0xf9, 0xe1, 0xec, 0xe5, 0xe3, 0x11, 0x8, 0x13, 0xea, 0x1f, 0xef,
  0xe9, 0x8, 0x2, 0x17, 0xc, 0x16, 0xf, 0x4, 0x7, 0xec, 0xf6, 0xf5,
  0xef, 0xd, 0xee, 0xe2, 0xca, 0xbd, 0x9e, 0x90, 0xd, 0xb1, 0xd0, 0xf7,
  0xae, 0xfa, 0x1c, 0x97, 0x2b, 0xde, 0x48, 0xc1, 0xdf, 0xf3, 0x45, 0xa4,
  0x8e, 0xec, 0x1a, 0xd, 0xc3, 0xf7, 0xa3, 0xd7, 0x8, 0x8, 0xa, 0xb9,
  0x92, 0x8d, 0xa2, 0x30, 0xee, 0xe6, 0x3e, 0xce, 0x22, 0x3c, 0x9e, 0x6,
  0x8b, 0x2f, 0x6, 0xae, 0x20, 0xa1, 0xa0, 0xee, 0x2, 0x5, 0x1d, 0x95,
  0x31, 0x29, 0xcd, 0x81, 0xbc, 0xac, 0x3a, 0x14, 0x38, 0x24, 0x33, 0x2f,
  0xf3, 0x3d, 0x1e, 0xb2, 0xe5, 0x40, 0x1e, 0xc2, 0xa9, 0xba, 0xb3, 0x1d,
  0x36, 0xd5, 0xe, 0x34, 0xc3, 0xbc, 0xa, 0xcf, 0xa, 0x2e, 0x84, 0xad,
  0xeb, 0xfa, 0xf4, 0x29, 0xea, 0xe2, 0xbc, 0x3c, 0xbe, 0x99, 0xed, 0x1b,
  0xeb, 0x23, 0xa8, 0x30, 0x2f, 0xb, 0xc4, 0x5, 0x1f, 0x1d, 0x90, 0xf0,
  0x42, 0xae, 0x26, 0x33, 0xcd, 0x32, 0xce, 0xdf, 0xbb, 0xf3, 0xf5, 0x94,
  0x85, 0xd6, 0xbf, 0x3e, 0x37, 0xe5, 0x2c, 0x94, 0xb8, 0x18, 0x3e, 0xa2,
  0xa2, 0x0, 0xb8, 0xda, 0x2b, 0x8d, 0x9b, 0x40, 0x27, 0x46, 0xaa, 0xe3,
  0xfb, 0x2c, 0x1a, 0xa1, 0xb1, 0xe3, 0x15, 0x2a, 0xd5, 0xc, 0x38, 0x17,
  0xc, 0xf2, 0xf1, 0xc5, 0xd2, 0x9f, 0xa9, 0x48, 0x16, 0xf4, 0xe5, 0x3,
  0x17, 0xfa, 0xde, 0xd2, 0xb8, 0xd, 0x94, 0xd9, 0x2d, 0x0, 0x36, 0xfe,
  0x32, 0x97, 0x2a, 0x11, 0xde, 0x9f, 0xee, 0xb4, 0x99, 0xa3, 0xa6, 0xaa,
  0xb9, 0xd0, 0xdf, 0xd4, 0xae, 0xa1, 0x8e, 0x81, 0x9a, 0xd1, 0xe2, 0xf8,
  0xf6, 0xfd, 0xf0, 0xf6, 0xf9, 0xf2, 0xe2, 0xaf, 0xf5, 0x12, 0x9, 0x7,
  0x8, 0x8, 0x4, 0x4, 0x3, 0x5, 0xfd, 0xd6, 0xe6, 0xf3, 0x6, 0x7,
  0x3, 0x3, 0x1, 0xc, 0x8, 0xa, 0xf5, 0xd5, 0xd4, 0xe4, 0xec, 0xed,
  0xfd, 0x0, 0xff, 0xf4, 0xf2, 0xf0, 0xeb, 0xe2, 0xa, 0xff, 0x2, 0x3,
  0xfe, 0xfe, 0x6, 0x5, 0xfb, 0xff, 0xfd, 0xfe, 0xf3, 0xf6, 0xe4, 0xe9,
  0xd8, 0xf7, 0xed, 0xf7, 0x9, 0xfe, 0x5, 0xff, 0x1, 0x7, 0x12, 0x6,
  0x1, 0xc, 0x1, 0x7, 0x4, 0x1, 0x4, 0x4, 0x7, 0x1, 0x3, 0xfd,
  0x2, 0xfc, 0x3, 0x3, 0xfc, 0x2, 0x1, 0x6, 0x9, 0xf9, 0xfa, 0xf4,
  0xf4, 0xee, 0xde, 0xec, 0xf8, 0xf4, 0xfe, 0x6, 0xfc, 0x8, 0xfd, 0x6,
  0x8, 0x5, 0x2, 0xff, 0x8, 0xfe, 0x2, 0x6, 0x6, 0x3, 0xfd, 0x0,
  0x5, 0xfc, 0x6, 0x3, 0xfe, 0x3, 0x3, 0x4, 0x0, 0x6, 0xfc, 0xf8,
  0xf5, 0xed, 0xed, 0xee, 0xe7, 0xf2, 0xf9, 0xed, 0xff, 0xfd, 0x2, 0xff,
  0xf8, 0xa, 0x2, 0xfc, 0xf5, 0xfe, 0xff, 0xfa, 0x3, 0xa, 0xfe, 0x4,
  0x3, 0x1, 0x5, 0x9, 0x5, 0xfe, 0xfe, 0xfb, 0xfc, 0x2, 0x2, 0x4,
  0xf3, 0xff, 0xf3, 0xec, 0xea, 0xe9, 0xe0, 0xed, 0x7f, 0x63, 0x5a, 0x47,
  0x2d, 0x1f, 0x10, 0x27, 0x2d, 0x4a, 0x51, 0x5c, 0x2c, 0x5, 0x9, 0xb,
  0x5, 0x7, 0x10, 0x5, 0x0, 0x3, 0xfe, 0x31, 0x2, 0xe8, 0x7, 0x0,
  0xd, 0xe, 0x5, 0xfe, 0x7, 0x5, 0xf2, 0xf9, 0x2c, 0x26, 0x2a, 0xd,
  0x11, 0x11, 0x11, 0xe, 0xd, 0xc, 0x3, 0x12, 0x1f, 0xc, 0xa, 0x9,
  0x10, 0xb, 0xc, 0x4, 0xa, 0xb, 0x12, 0xc, 0xf3, 0xfb, 0xfa, 0xfd,
  0xfe, 0xfd, 0xf9, 0xc, 0xfd, 0x9, 0x6, 0xfd, 0xfc, 0xfb, 0x14, 0x8,
  0x1a, 0xfc, 0xf4, 0xfb, 0xec, 0xec, 0xff, 0xf0, 0xf9, 0xf2, 0xf7, 0xf6,
  0xf8, 0xf6, 0x0, 0x2, 0xf5, 0x1, 0xf9, 0x1, 0xf8, 0xf2, 0x0, 0x0,
  0x2, 0x5, 0xfe, 0x2, 0xf6, 0x9, 0xf9, 0x4, 0x5, 0x2, 0xf6, 0xf2,
  0xee, 0xf6, 0xf5, 0x12, 0xfa, 0xfd, 0x1, 0xfa, 0xfc, 0xf, 0x13, 0xe,
  0xa, 0xc, 0x2, 0x10, 0x8, 0xd, 0xc, 0x2, 0xff, 0x13, 0x5, 0xc,
  0x7, 0x8, 0x5, 0x7, 0x5, 0x5, 0x8, 0xfe, 0x4, 0x2, 0xfe, 0x1,
  0xf4, 0x6, 0xf6, 0xf7, 0x1, 0xe, 0xc, 0xe, 0xff, 0xfd, 0x0, 0x12,
  0xfd, 0xf0, 0x0, 0xff, 0xfc, 0xee, 0xf6, 0x5, 0xd, 0xfc, 0xff, 0xfc,
  0xf4, 0x2, 0xf9, 0xfc, 0xff, 0x0, 0x2, 0x0, 0x4, 0xf, 0xe, 0xf4,
  0x5, 0x2, 0x6, 0x3, 0x19, 0x7, 0x14, 0x24, 0x81, 0x8d, 0xa0, 0xbe,
  0xd6, 0x0, 0xfd, 0xfc, 0xe4, 0xd6, 0xc6, 0xa9, 0xd2, 0xff, 0x1e, 0xd,
  0x1a, 0x10, 0x4, 0xd, 0x15, 0x16, 0x10, 0xf6, 0xd8, 0x2, 0x3, 0x5,
  0x2, 0xfb, 0xfc, 0x7, 0x6, 0xfb, 0x4, 0xea, 0x86, 0xa5, 0xd7, 0xee,
  0xee, 0xeb, 0xf1, 0xfb, 0xf8, 0xf7, 0xfe, 0xef, 0xf1, 0xee, 0xfc, 0xef,
  0xfb, 0xfe, 0xfb, 0xf7, 0xf7, 0xf7, 0xfd, 0xf3, 0xf, 0x3, 0x0, 0x4,
  0x2, 0x2, 0xff, 0x1, 0xfa, 0x8, 0x5, 0xd, 0x11, 0xd, 0x7, 0xd,
  0x2, 0xe3, 0xe9, 0xf0, 0xf0, 0xf9, 0xfd, 0xc, 0x11, 0x9, 0xe, 0x3,
  0xf, 0x9, 0x4, 0xfc, 0xfd, 0xff, 0x2, 0xc, 0x8, 0x3, 0x4, 0xa,
  0xa, 0xa, 0x4, 0xff, 0x1, 0x4, 0x9, 0x10, 0x10, 0x13, 0x15, 0x1d,
  0x18, 0x13, 0x16, 0xca, 0xc9, 0xdd, 0xe2, 0xec, 0xe8, 0xf4, 0xfe, 0x5,
  0xfe, 0x0, 0x0, 0xf7, 0xf8, 0xfd, 0xfa, 0x5, 0xfb, 0xfd, 0x2, 0xb,
  0x4, 0xfe, 0x7, 0xa, 0x9, 0x4, 0x8, 0xc, 0x7, 0x9, 0xc, 0xc,
  0x16, 0x9, 0x16, 0x7, 0x0, 0xc1, 0xc3, 0xbd, 0xd3, 0xd3, 0xbc, 0xc3,
  0xd8, 0xd3, 0xd3, 0xeb, 0xdd, 0xe8, 0xf1, 0xf4, 0xf3, 0xfa, 0xfb, 0xfe,
  0x6, 0xff, 0x1, 0xfb, 0xf8, 0xeb, 0xf0, 0xfe, 0xee, 0xed, 0xe2, 0xf1,
  0xdd, 0xea, 0xe1, 0xe1, 0xcb, 0xcc, 0xbd, 0xb1, 0x63, 0x32, 0x4d, 0x34,
  0x3e, 0x5c, 0x3a, 0x3a, 0x38, 0x43, 0x24, 0x1a, 0xe, 0x5d, 0x2c, 0x4a,
  0x62, 0x3, 0xdd, 0x10, 0x64, 0x4f, 0x20, 0x31, 0x5a, 0x7a, 0x68, 0x58,
  0x56, 0x15, 0xed, 0x24, 0x7f, 0x3f, 0x1d, 0x2a, 0x41, 0x59, 0x6c, 0x76,
  0x56, 0xee, 0xe9, 0x5d, 0x51, 0x1f, 0xe9, 0xe8, 0xe7, 0xf4, 0x9, 0x35,
  0x3a, 0x15, 0x26, 0xf9, 0xe0, 0xcb, 0xd2, 0xae, 0xef, 0x2c, 0x30, 0x42,
  0x36, 0x33, 0x4e, 0x36, 0x2, 0x2, 0xef, 0xd9, 0xcb, 0xe4, 0x10, 0xb9,
  0xe5, 0xec, 0xf2, 0xd8, 0xe5, 0xe2, 0x27, 0x4, 0x1e, 0x30, 0x1d, 0x28,
  0x2f, 0x33, 0x4e, 0x2e, 0xfe, 0xf8, 0xe9, 0xd4, 0xd8, 0xb8, 0xe4, 0x7,
  0x3b, 0x45, 0x43, 0x38, 0x2e, 0x3c, 0x16, 0x5, 0xfe, 0xe4, 0xaa, 0xc6,
  0xbc, 0xb3, 0xc0, 0x2, 0x6, 0xf8, 0x2e, 0x1d, 0x3b, 0x28, 0x41, 0x4c,
  0x28, 0x5b, 0x29, 0x56, 0x4f, 0x2b, 0x24, 0x19, 0xfc, 0xd8, 0xdb, 0xe9,
  0xfa, 0x11, 0x24, 0x40, 0x40, 0x37, 0x28, 0x37, 0x16, 0xc, 0x2, 0x9,
  0xe4, 0xea, 0xd4, 0xb9, 0xb1, 0x2a, 0xe8, 0x16, 0xc, 0x1c, 0xa, 0x17,
  0x24, 0x2, 0x5, 0x19, 0x3, 0xd, 0x1d, 0x2f, 0x35, 0x16, 0x10, 0x16,
  0x15, 0x15, 0xfc, 0x18, 0x18, 0xf2, 0xf7, 0xf8, 0x7, 0x5, 0xe, 0xf7,
  0xf9, 0x22, 0xe, 0xb, 0x4, 0x2e, 0xf7, 0xf5, 0x81, 0xa9, 0xa5, 0xbd,
  0xc8, 0xd3, 0xd9, 0xdc, 0xc8, 0xaf, 0xa1, 0x89, 0xdb, 0xf9, 0x0, 0xf3,
  0xf0, 0xf1, 0xee, 0xef, 0xfb, 0xf5, 0xef, 0xd4, 0x11, 0x32, 0x5, 0x6,
  0x4, 0x1, 0xf8, 0xfe, 0xfe, 0x1, 0x10, 0xfb, 0xe2, 0xef, 0xf1, 0x11,
  0x12, 0x5, 0x5, 0xa, 0x2, 0x12, 0x8, 0x9, 0xed, 0x1, 0x1, 0x5,
  0x8, 0xc, 0x6, 0xfd, 0x5, 0x0, 0xee, 0xf6, 0x7, 0x3, 0xa, 0x6,
  0x3, 0x12, 0x10, 0xfe, 0xa, 0xf0, 0xf4, 0xf6, 0xf4, 0xfd, 0xde, 0xdc,
  0xcc, 0x0, 0xf, 0x1b, 0x1a, 0x1c, 0xa, 0x1b, 0x15, 0x11, 0x14, 0x17,
  0x11, 0x19, 0xb, 0x12, 0xe, 0xb, 0x17, 0x9, 0x1, 0x11, 0xfc, 0x10,
  0xd, 0x5, 0x1, 0x8, 0x7, 0x6, 0x8, 0x5, 0xf3, 0xed, 0xfd, 0xee,
  0xf6, 0xdf, 0xcc, 0xd5, 0xf2, 0xf2, 0xe7, 0xf4, 0xf7, 0xe8, 0xe2, 0xea,
  0xed, 0xe6, 0xef, 0xed, 0xf8, 0xeb, 0x0, 0xfb, 0xfa, 0xe7, 0xf9, 0xf7,
  0xee, 0xf3, 0xef, 0xf8, 0xf4, 0xfd, 0xf3, 0xff, 0xf1, 0xf0, 0xec, 0xe7,
  0xd6, 0xc3, 0xc8, 0xb0, 0xaa, 0xdd, 0xdb, 0xdc, 0xe6, 0xd8, 0xdc, 0xc6,
  0xde, 0xe2, 0xd3, 0xea, 0xd1, 0xe1, 0xda, 0xd9, 0xe0, 0xe1, 0xe5, 0xdf,
  0xdf, 0xcc, 0xcf, 0xd1, 0xcc, 0xcc, 0xd2, 0xcb, 0xc4, 0xb0, 0xb0, 0xd3,
  0xc6, 0xb7, 0xac, 0xb8, 0xa8, 0xa5, 0xa4, 0x9a, 0x48, 0x2, 0x10, 0xdb,
  0xe6, 0x24, 0x10, 0x1b, 0x23, 0x3, 0x34, 0x3, 0xfa, 0x43, 0x13, 0x4f,
  0x4c, 0x2b, 0xde, 0x3c, 0x77, 0x5e, 0x2e, 0x17, 0x1b, 0x4d, 0x69, 0x5a,
  0x50, 0xbd, 0xbd, 0x9, 0x59, 0x36, 0xf8, 0xe7, 0xfd, 0xf6, 0x29, 0x4d,
  0x46, 0xd2, 0xe4, 0x65, 0x5d, 0x2c, 0x2e, 0x3d, 0x50, 0x32, 0x45, 0x61,
  0x5d, 0x4c, 0x55, 0x38, 0x18, 0x26, 0x12, 0x24, 0x13, 0x4c, 0x5c, 0x74,
  0x6a, 0x7e, 0x67, 0x79, 0x54, 0x34, 0x4, 0x5, 0xf2, 0x7, 0xc, 0xc0,
  0xc1, 0xcf, 0xf8, 0xdf, 0x9, 0x21, 0x5d, 0x37, 0x7c, 0x58, 0x4c, 0x59,
  0x5c, 0x59, 0x4d, 0x26, 0xb, 0xec, 0xea, 0xf8, 0xe0, 0xf2, 0xf2, 0x44,
  0x5c, 0x7f, 0x50, 0x73, 0x65, 0x6e, 0x5b, 0x59, 0x31, 0x31, 0xff, 0x16,
  0x1e, 0xb, 0x24, 0xb6, 0xd7, 0x9b, 0xfa, 0xfb, 0x20, 0x2, 0x36, 0x31,
  0x1b, 0x61, 0x36, 0x35, 0x55, 0x33, 0x1a, 0x8, 0x2, 0xf7, 0x1, 0xe1,
  0xef, 0x3a, 0x56, 0x5a, 0x69, 0x52, 0x6b, 0x51, 0x2b, 0x3f, 0x15, 0x28,
  0xe7, 0xd7, 0x5, 0xcb, 0xb7, 0xcf, 0xa6, 0xac, 0xae, 0xc4, 0xa8, 0xbe,
  0xcc, 0xac, 0xbd, 0xd2, 0xd2, 0xe1, 0x2, 0xd, 0xa, 0xef, 0x16, 0x5,
  0xf4, 0xfd, 0xf6, 0xe9, 0xf8, 0xc7, 0xe8, 0xf1, 0xe2, 0xd6, 0xc6, 0xd9,
  0xc0, 0xfa, 0xeb, 0xcc, 0xdd, 0xf0, 0xaf, 0xaa, 0x1e, 0xed, 0xe7, 0xcb,
  0xe6, 0x1d, 0xb, 0xfd, 0xb, 0xed, 0xe7, 0xd9, 0xbe, 0x37, 0x10, 0x38,
  0x58, 0x32, 0x0, 0x3c, 0x74, 0x53, 0x2a, 0xfb, 0x21, 0x6f, 0x78, 0x74,
  0x56, 0x1, 0xff, 0x35, 0x7f, 0x5e, 0xfe, 0xff, 0xe8, 0xf4, 0x3c, 0x49,
  0x68, 0x1, 0xe4, 0x59, 0x61, 0x14, 0xfc, 0xc, 0x0, 0xec, 0x15, 0x47,
  0x2f, 0x23, 0x31, 0xd, 0xe1, 0xf1, 0xe9, 0xd6, 0xb, 0x2a, 0x3d, 0x49,
  0x4f, 0x5b, 0x58, 0x5c, 0x26, 0xfa, 0xe7, 0xed, 0xc4, 0xe5, 0x6, 0x8e,
  0xcc, 0xd5, 0xf, 0xec, 0x0, 0x34, 0x55, 0x43, 0x55, 0x70, 0x46, 0x4a,
  0x5d, 0x5a, 0x5c, 0x2d, 0xf4, 0xe1, 0xf7, 0xf1, 0xed, 0xc2, 0xe5, 0x2a,
  0x2b, 0x52, 0x4d, 0x63, 0x52, 0x6c, 0x3c, 0x48, 0x10, 0x11, 0xed, 0xfe,
  0xff, 0xcf, 0xe0, 0xdb, 0xf7, 0xb4, 0x11, 0xf2, 0x1e, 0x0, 0x46, 0x51,
  0x20, 0x6a, 0x42, 0x4f, 0x52, 0x35, 0x15, 0x17, 0xe, 0xfa, 0xe6, 0xf3,
  0xe6, 0x17, 0x4c, 0x43, 0x55, 0x50, 0x4c, 0x3e, 0x28, 0x15, 0x11, 0x5,
  0xd4, 0xd7, 0xe3, 0xc0, 0xba, 0xe6, 0xc2, 0xb6, 0xb8, 0xce, 0xc2, 0xdd,
  0xe7, 0xd7, 0xe3, 0xca, 0xc3, 0xe3, 0x1c, 0xfd, 0xf3, 0xf4, 0x17, 0xf,
  0xfe, 0xe, 0xdc, 0xdb, 0x16, 0xcc, 0xcd, 0xea, 0xe3, 0xe4, 0xf6, 0xef,
  0xe3, 0xf9, 0xf0, 0xe0, 0x0, 0x2, 0xda, 0xd2, 0x82, 0xc1, 0xba, 0xda,
  0xea, 0x15, 0x19, 0x0, 0xe7, 0xc4, 0xa5, 0x81, 0xf4, 0xd, 0x9, 0xd,
  0xe, 0xfc, 0xec, 0xf6, 0x3, 0xfb, 0x0, 0xd8, 0x2c, 0x46, 0x8, 0x7,
  0x1, 0x6, 0xf1, 0xe, 0xfe, 0xe, 0x22, 0x1c, 0xea, 0xf8, 0xe5, 0xb,
  0xa, 0xea, 0xe5, 0x8, 0x9, 0xd, 0x5, 0xef, 0xe5, 0xed, 0xeb, 0xf9,
  0x0, 0xfa, 0xfc, 0xef, 0xeb, 0xeb, 0xe9, 0xef, 0x18, 0x6, 0xfd, 0xfd,
  0xfb, 0xd, 0xfb, 0x3, 0xf9, 0xfa, 0xed, 0xf8, 0xf3, 0x2, 0xd8, 0xd6,
  0xa4, 0x15, 0x1c, 0xf, 0x1f, 0x19, 0xfa, 0x12, 0x13, 0xe, 0x18, 0xf,
  0x15, 0x19, 0x1c, 0x17, 0x10, 0xf, 0x11, 0xf5, 0x8, 0x1, 0x5, 0x9,
  0x7, 0x9, 0x10, 0xb, 0x1, 0x11, 0x2, 0xf5, 0xe8, 0xf6, 0xa, 0xdc,
  0xeb, 0xc4, 0xbb, 0xf7, 0x7, 0xd, 0x11, 0xf6, 0x7, 0xfd, 0xef, 0xe6,
  0xe9, 0xe1, 0xfa, 0xed, 0xe6, 0xf3, 0xef, 0xf5, 0xe9, 0xcd, 0xcb, 0xcd,
  0xe5, 0xe6, 0xea, 0xec, 0xf3, 0xfd, 0xe3, 0x3, 0xf9, 0xef, 0xf0, 0xec,
  0xe5, 0xce, 0xc6, 0xab, 0x8e, 0xfe, 0xdd, 0xf4, 0xfc, 0x3, 0x2, 0xe5,
  0xfb, 0x3, 0xe4, 0xfb, 0xe8, 0xfa, 0xec, 0xe3, 0xe8, 0xdf, 0xd9, 0xcb,
  0xd0, 0xd3, 0xdc, 0xd5, 0xdc, 0xf2, 0xec, 0xd5, 0xe3, 0xc2, 0xd3, 0xf7,
  0xe0, 0xe0, 0xc4, 0xd4, 0xb5, 0xaa, 0x94, 0x87, 0x5c, 0x3e, 0x43, 0x2f,
  0x3e, 0x68, 0x52, 0x65, 0x5d, 0x4b, 0x62, 0x28, 0x30, 0x4a, 0x34, 0x43,
  0x44, 0x16, 0xdb, 0x13, 0x7f, 0x60, 0x38, 0x40, 0x3f, 0x29, 0x42, 0x32,
  0x3e, 0xe0, 0xb3, 0x13, 0x61, 0x46, 0x20, 0x7, 0x3, 0x1, 0x19, 0x66,
  0x5c, 0xf8, 0xdd, 0x61, 0x75, 0x26, 0x36, 0x1e, 0x28, 0x13, 0x34, 0x3b,
  0x3f, 0x23, 0xe, 0x16, 0xdf, 0xd0, 0xc4, 0xdb, 0xfc, 0x11, 0x22, 0x43,
  0x2e, 0x53, 0x4e, 0x37, 0x24, 0x1b, 0xfb, 0x10, 0xf2, 0xfb, 0x1f, 0xd5,
  0xe1, 0x8, 0x2, 0xfc, 0x31, 0x1c, 0x2a, 0x1d, 0x46, 0x3c, 0x26, 0x24,
  0x32, 0x4d, 0x3c, 0x1c, 0xef, 0xeb, 0xdc, 0xdd, 0xbc, 0xc0, 0xf0, 0x24,
  0x2c, 0x56, 0x4c, 0x3d, 0x2a, 0x36, 0x49, 0x1b, 0x2c, 0x1f, 0xff, 0x0,
  0x17, 0x6, 0x15, 0x1, 0x1d, 0x4, 0x3e, 0x19, 0x2a, 0x19, 0x53, 0x38,
  0x24, 0x51, 0x37, 0x44, 0x2a, 0x12, 0x1c, 0xff, 0xdb, 0xcd, 0xd9, 0xd9,
  0xec, 0x20, 0x47, 0x59, 0x53, 0x48, 0x41, 0x32, 0x32, 0x3a, 0x22, 0x30,
  0xf7, 0x1a, 0x2a, 0xe6, 0xed, 0x17, 0xbb, 0xfa, 0xf5, 0x3, 0xdc, 0xf,
  0x8, 0xd7, 0x0, 0xf9, 0xe7, 0xe4, 0x1f, 0x27, 0x1c, 0x1, 0x7, 0x7,
  0xed, 0xe, 0xa, 0x7, 0x1a, 0xfd, 0xf2, 0x1, 0xfe, 0xfa, 0xf1, 0xf2,
  0x0, 0x3d, 0xfd, 0x14, 0x7, 0xea, 0xc5, 0xae, 0x32, 0xfc, 0xff, 0xff,
  0x4, 0x0, 0x0, 0x0, 0x80, 0x0, 0x0, 0x0, 0xa9, 0xea, 0xff, 0xff,
  0xf7, 0x6, 0x0, 0x0, 0x8, 0x2, 0x0, 0x0, 0xb4, 0xe2, 0xff, 0xff,
  0xc7, 0xf9, 0xff, 0xff, 0xf, 0xde, 0xff, 0xff, 0xf, 0xfb, 0xff, 0xff,
  0x84, 0x4, 0x0, 0x0, 0xbf, 0xf9, 0xff, 0xff, 0xec, 0x17, 0x0, 0x0,
  0x19, 0x27, 0x0, 0x0, 0x28, 0x41, 0x0, 0x0, 0x26, 0xf1, 0xff, 0xff,
  0xd7, 0xeb, 0xff, 0xff, 0x2e, 0x13, 0x0, 0x0, 0x1b, 0xe1, 0xff, 0xff,
  0x11, 0x9c, 0xff, 0xff, 0xb6, 0xa, 0x0, 0x0, 0x69, 0x7, 0x0, 0x0,
  0x1b, 0xf8, 0xff, 0xff, 0xae, 0xf5, 0xff, 0xff, 0xaa, 0xf7, 0xff, 0xff,
  0x87, 0xd8, 0xff, 0xff, 0xab, 0x7, 0x0, 0x0, 0x97, 0xfa, 0xff, 0xff,
  0xf, 0x5, 0x0, 0x0, 0xab, 0xf8, 0xff, 0xff, 0xd9, 0xf, 0x0, 0x0,
  0x3a, 0xf9, 0xff, 0xff, 0x5, 0xfb, 0xff, 0xff, 0xdd, 0x21, 0x0, 0x0,
  0xd6, 0xf9, 0xff, 0xff, 0xbe, 0xfc, 0xff, 0xff, 0x4, 0x0, 0x0, 0x0,
  0x0, 0x2, 0x0, 0x0, 0xf3, 0x47, 0x45, 0xf7, 0xfe, 0xef, 0xe7, 0x56,
  0xb, 0x2, 0x15, 0xf9, 0xf, 0xee, 0x33, 0xe, 0xba, 0xf, 0x18, 0xce,
  0xde, 0x14, 0x9, 0x7f, 0xf0, 0x5a, 0xf0, 0x1c, 0x1b, 0xf3, 0x1c, 0x5,
  0xec, 0x32, 0x4c, 0x20, 0x21, 0xf3, 0xba, 0x24, 0x22, 0xa, 0xed, 0x13,
  0xea, 0x25, 0xff, 0xec, 0xc3, 0x11, 0xf1, 0xc9, 0x2d, 0x45, 0x2, 0x7f,
  0x35, 0x74, 0x4, 0xfc, 0x2d, 0x23, 0xfb, 0x4b, 0x2, 0xa9, 0xcb, 0xf7,
  0xe6, 0x6, 0xd6, 0xd0, 0xc7, 0xcd, 0x17, 0x2a, 0xfa, 0xff, 0x2f, 0x5,
  0x4, 0xf1, 0x1, 0xee, 0xd8, 0x81, 0xd, 0xec, 0x9c, 0xaa, 0xd8, 0x9,
  0xa9, 0x9f, 0x23, 0xb8, 0x19, 0xb8, 0xf8, 0x4, 0x5e, 0xf3, 0xe5, 0xc3,
  0xd3, 0x56, 0xff, 0xec, 0xf7, 0xd8, 0x93, 0xcb, 0x15, 0x66, 0xda, 0xd6,
  0x19, 0x6b, 0x0, 0x81, 0x56, 0x17, 0x65, 0x82, 0x1b, 0x4d, 0x2, 0x54,
  0x3, 0xdf, 0xeb, 0xff, 0xc1, 0x1d, 0x3f, 0x81, 0x18, 0x2f, 0x32, 0x9,
  0xed, 0xf0, 0xe6, 0x31, 0x36, 0xcd, 0x35, 0x5a, 0x1, 0x9f, 0x2c, 0xad,
  0x11, 0x6, 0xa1, 0xe6, 0xfd, 0xb5, 0x32, 0xa8, 0xe5, 0x59, 0x61, 0x1d,
  0x41, 0xf8, 0xdf, 0x65, 0xf0, 0xed, 0x4, 0x12, 0x1c, 0xf0, 0x4d, 0x3,
  0xe3, 0x24, 0xda, 0xeb, 0xdf, 0x1c, 0xf8, 0x7f, 0xf1, 0x55, 0x41, 0xea,
  0x11, 0x2e, 0x2, 0x22, 0xef, 0x45, 0x65, 0x8, 0x20, 0x14, 0xe1, 0x7e,
  0xf1, 0xd4, 0x21, 0xa, 0xf1, 0xf3, 0x60, 0xe7, 0xd8, 0x1e, 0xfc, 0xc4,
  0xfa, 0x24, 0xed, 0x7f, 0xe2, 0x4a, 0xa, 0x26, 0xf5, 0x3, 0x4b, 0x2b,
  0x1, 0xae, 0xc4, 0xff, 0x26, 0xb, 0x19, 0x9e, 0x1c, 0x39, 0xe, 0xe7,
  0x6, 0xf2, 0xd2, 0xc, 0xfc, 0x22, 0x13, 0xe, 0x3, 0x1, 0xa, 0x81,
  0xd, 0xaa, 0x1b, 0xcc, 0x3, 0xe, 0xea, 0x13, 0xf4, 0xe9, 0xfb, 0xfc,
  0x10, 0xfa, 0x14, 0xaa, 0xff, 0xe, 0xd7, 0x81, 0xf5, 0xb, 0xce, 0x8,
  0x12, 0xb, 0xdf, 0xe, 0x23, 0xf7, 0xfb, 0xb5, 0x23, 0xfb, 0x2, 0xbd,
  0xfb, 0xf7, 0xec, 0xfb, 0xb, 0x4c, 0x48, 0xf4, 0xf5, 0xfb, 0xdc, 0x56,
  0xe, 0xfc, 0xf, 0x15, 0xf9, 0x6, 0x3c, 0x6, 0xe7, 0xf8, 0x16, 0xd7,
  0xe8, 0x0, 0x3, 0x7f, 0xe1, 0x41, 0xd, 0x2f, 0xf6, 0x8, 0x2a, 0xf4,
  0x95, 0xb, 0x9b, 0x10, 0x99, 0xf9, 0x78, 0xf7, 0xb1, 0x9e, 0xc3, 0x81,
  0x38, 0xd3, 0x9a, 0xc8, 0xd2, 0xbb, 0xa0, 0xad, 0xd, 0x62, 0x25, 0xf6,
  0xdf, 0xdd, 0xeb, 0x24, 0x33, 0xe5, 0xc1, 0x43, 0x1a, 0x86, 0x9b, 0xf5,
  0x7e, 0xe, 0xd1, 0x81, 0x29, 0x53, 0xe4, 0xc4, 0xf4, 0x12, 0xea, 0x1b,
  0xe6, 0x6a, 0x5, 0x31, 0x6c, 0x1c, 0xf8, 0x9d, 0x47, 0xe5, 0x26, 0xa5,
  0x57, 0xd, 0x5, 0x26, 0x8d, 0x97, 0x25, 0x22, 0xc3, 0x2, 0xee, 0xb5,
  0x19, 0x3, 0xd1, 0x34, 0x4f, 0xf7, 0x0, 0x57, 0xe4, 0x8f, 0xd5, 0x81,
  0x3a, 0x94, 0x1b, 0xeb, 0xa7, 0xe3, 0x12, 0xa7, 0xe9, 0xb4, 0x50, 0xfa,
  0xfd, 0xe2, 0xbd, 0xf, 0x6, 0xf9, 0xb, 0xb0, 0x24, 0x21, 0x1e, 0xf3,
  0x13, 0xf, 0x8d, 0xfc, 0x7, 0x14, 0xfb, 0x24, 0x14, 0x6, 0xfb, 0x81,
  0x1, 0xcc, 0xd, 0xdf, 0x1f, 0x19, 0xe1, 0x9, 0x12, 0x47, 0x3a, 0xa,
  0xff, 0x11, 0xe7, 0x49, 0x3, 0x97, 0x4, 0x3e, 0x1, 0x10, 0x70, 0x6,
  0xcd, 0x1a, 0xea, 0xd2, 0xd3, 0xff, 0x7, 0x7f, 0xe5, 0x27, 0xf4, 0x3c,
  0x8, 0xfc, 0x28, 0x4, 0xf1, 0xce, 0x96, 0xf5, 0x3c, 0xea, 0xe1, 0x86,
  0xe4, 0xf3, 0xba, 0xe1, 0xa, 0xff, 0x39, 0x5, 0x38, 0x17, 0x81, 0xec,
  0x2e, 0x14, 0xe9, 0xf0, 0x6b, 0xf3, 0x28, 0xbf, 0xf8, 0xdc, 0x16, 0xe7,
  0xca, 0xfe, 0xff, 0xff, 0x4, 0x0, 0x0, 0x0, 0x40, 0x0, 0x0, 0x0,
  0xca, 0x0, 0x0, 0x0, 0x5d, 0xff, 0xff, 0xff, 0xc4, 0x3, 0x0, 0x0,
  0x7c, 0xff, 0xff, 0xff, 0xf9, 0x3, 0x0, 0x0, 0x9c, 0xff, 0xff, 0xff,
  0xb0, 0x1, 0x0, 0x0, 0x1f, 0x0, 0x0, 0x0, 0x46, 0xfe, 0xff, 0xff,
  0x4f, 0x0, 0x0, 0x0, 0x72, 0xfd, 0xff, 0xff, 0x53, 0x0, 0x0, 0x0,
  0x9d, 0xfe, 0xff, 0xff, 0x67, 0x1, 0x0, 0x0, 0x43, 0x4, 0x0, 0x0,
  0xc1, 0x5, 0x0, 0x0, 0x16, 0xff, 0xff, 0xff, 0x4, 0x0, 0x0, 0x0,
  0x30, 0x0, 0x0, 0x0, 0x5, 0xe1, 0x7f, 0xd0, 0x1a, 0xe7, 0x1, 0x9c,
  0xc, 0x20, 0xe4, 0xc6, 0x15, 0xcc, 0x2a, 0x48, 0x40, 0x15, 0xb6, 0x10,
  0xde, 0x14, 0x3c, 0x9, 0x7f, 0x3f, 0xfd, 0x13, 0xf1, 0xe1, 0x29, 0x30,
  0xce, 0xf1, 0x81, 0xff, 0x24, 0xed, 0xde, 0x1a, 0xb6, 0xaf, 0xfc, 0x5,
  0x0, 0x20, 0xbe, 0xc3, 0x52, 0xff, 0xff, 0xff, 0x4, 0x0, 0x0, 0x0,
  0xc, 0x0, 0x0, 0x0, 0xf, 0x0, 0x0, 0x0, 0xc3, 0xff, 0xff, 0xff,
  0x30, 0x0, 0x0, 0x0, 0x38, 0xff, 0xff, 0xff, 0x3c, 0xff, 0xff, 0xff,
  0xf, 0x0, 0x0, 0x0, 0x4d, 0x4c, 0x49, 0x52, 0x20, 0x43, 0x6f, 0x6e,
  0x76, 0x65, 0x72, 0x74, 0x65, 0x64, 0x2e, 0x0, 0x1, 0x0, 0x0, 0x0,
  0x14, 0x0, 0x0, 0x0, 0x0, 0x0, 0xe, 0x0, 0x18, 0x0, 0x14, 0x0,
  0x10, 0x0, 0xc, 0x0, 0x8, 0x0, 0x4, 0x0, 0xe, 0x0, 0x0, 0x0,
  0x14, 0x0, 0x0, 0x0, 0x1c, 0x0, 0x0, 0x0, 0x38, 0x1, 0x0, 0x0,
  0x3c, 0x1, 0x0, 0x0, 0x40, 0x1, 0x0, 0x0, 0x4, 0x0, 0x0, 0x0,
  0x6d, 0x61, 0x69, 0x6e, 0x0, 0x0, 0x0, 0x0, 0x4, 0x0, 0x0, 0x0,
  0xe0, 0x0, 0x0, 0x0, 0x98, 0x0, 0x0, 0x0, 0x50, 0x0, 0x0, 0x0,
  0x14, 0x0, 0x0, 0x0, 0x0, 0x0, 0xe, 0x0, 0x1a, 0x0, 0x14, 0x0,
  0x10, 0x0, 0xc, 0x0, 0xb, 0x0, 0x4, 0x0, 0xe, 0x0, 0x0, 0x0,
  0x1c, 0x0, 0x0, 0x0, 0x0, 0x0, 0x0, 0x9, 0x1c, 0x0, 0x0, 0x0,
  0x20, 0x0, 0x0, 0x0, 0x1, 0x0, 0x0, 0x0, 0x0, 0x0, 0x6, 0x0,
  0x8, 0x0, 0x4, 0x0, 0x6, 0x0, 0x0, 0x0, 0x0, 0x0, 0x80, 0x3f,
  0x1, 0x0, 0x0, 0x0, 0xa, 0x0, 0x0, 0x0, 0x1, 0x0, 0x0, 0x0,
  0x9, 0x0, 0x0, 0x0, 0xca, 0xff, 0xff, 0xff, 0x14, 0x0, 0x0, 0x0,
  0x0, 0x0, 0x0, 0x8, 0x10, 0x0, 0x0, 0x0, 0x14, 0x0, 0x0, 0x0,
  0x4, 0x0, 0x4, 0x0, 0x4, 0x0, 0x0, 0x0, 0x1, 0x0, 0x0, 0x0,
  0x9, 0x0, 0x0, 0x0, 0x3, 0x0, 0x0, 0x0, 0x8, 0x0, 0x0, 0x0,
  0x2, 0x0, 0x0, 0x0, 0x1, 0x0, 0x0, 0x0, 0x0, 0x0, 0xe, 0x0,
  0x14, 0x0, 0x0, 0x0, 0x10, 0x0, 0xc, 0x0, 0xb, 0x0, 0x4, 0x0,
  0xe, 0x0, 0x0, 0x0, 0x10, 0x0, 0x0, 0x0, 0x0, 0x0, 0x0, 0x8,
  0x10, 0x0, 0x0, 0x0, 0x14, 0x0, 0x0, 0x0, 0xba, 0xff, 0xff, 0xff,
  0x0, 0x0, 0x0, 0x1, 0x1, 0x0, 0x0, 0x0, 0x8, 0x0, 0x0, 0x0,
  0x3, 0x0, 0x0, 0x0, 0x7, 0x0, 0x0, 0x0, 0x4, 0x0, 0x0, 0x0,
  0x3, 0x0, 0x0, 0x0, 0x0, 0x0, 0xe, 0x0, 0x16, 0x0, 0x0, 0x0,
  0x10, 0x0, 0xc, 0x0, 0xb, 0x0, 0x4, 0x0, 0xe, 0x0, 0x0, 0x0,
  0x18, 0x0, 0x0, 0x0, 0x0, 0x0, 0x0, 0x8, 0x18, 0x0, 0x0, 0x0,
  0x1c, 0x0, 0x0, 0x0, 0x0, 0x0, 0x6, 0x0, 0x8, 0x0, 0x7, 0x0,
  0x6, 0x0, 0x0, 0x0, 0x0, 0x0, 0x0, 0x1, 0x1, 0x0, 0x0, 0x0,
  0x7, 0x0, 0x0, 0x0, 0x3, 0x0, 0x0, 0x0, 0x0, 0x0, 0x0, 0x0,
  0x6, 0x0, 0x0, 0x0, 0x5, 0x0, 0x0, 0x0, 0x1, 0x0, 0x0, 0x0,
  0xa, 0x0, 0x0, 0x0, 0x1, 0x0, 0x0, 0x0, 0x0, 0x0, 0x0, 0x0,
  0xb, 0x0, 0x0, 0x0, 0x18, 0xa, 0x0, 0x0, 0x78, 0x9, 0x0, 0x0,
  0xd4, 0x8, 0x0, 0x0, 0x98, 0x7, 0x0, 0x0, 0x74, 0x6, 0x0, 0x0,
  0x78, 0x4, 0x0, 0x0, 0x94, 0x2, 0x0, 0x0, 0xe0, 0x1, 0x0, 0x0,
  0x24, 0x1, 0x0, 0x0, 0x80, 0x0, 0x0, 0x0, 0x4, 0x0, 0x0, 0x0,
  0x2a, 0xf6, 0xff, 0xff, 0x0, 0x0, 0x0, 0x1, 0x18, 0x0, 0x0, 0x0,
  0x20, 0x0, 0x0, 0x0, 0x3c, 0x0, 0x0, 0x0, 0xb, 0x0, 0x0, 0x0,
  0x0, 0x0, 0x0, 0x9, 0x50, 0x0, 0x0, 0x0, 0x2, 0x0, 0x0, 0x0,
  0xff, 0xff, 0xff, 0xff, 0x3, 0x0, 0x0, 0x0, 0x14, 0xf6, 0xff, 0xff,
  0x8, 0x0, 0x0, 0x0, 0x10, 0x0, 0x0, 0x0, 0x1, 0x0, 0x0, 0x0,
  0x80, 0xff, 0xff, 0xff, 0xff, 0xff, 0xff, 0xff, 0x1, 0x0, 0x0, 0x0,
  0x0, 0x0, 0x80, 0x3b, 0x1b, 0x0, 0x0, 0x0, 0x53, 0x74, 0x61, 0x74,
  0x65, 0x66, 0x75, 0x6c, 0x50, 0x61, 0x72, 0x74, 0x69, 0x74, 0x69, 0x6f,
  0x6e, 0x65, 0x64, 0x43, 0x61, 0x6c, 0x6c, 0x5f, 0x31, 0x3a, 0x30, 0x0,
  0x2, 0x0, 0x0, 0x0, 0x1, 0x0, 0x0, 0x0, 0x3, 0x0, 0x0, 0x0,
  0xa2, 0xf6, 0xff, 0xff, 0x0, 0x0, 0x0, 0x1, 0x18, 0x0, 0x0, 0x0,
  0x20, 0x0, 0x0, 0x0, 0x40, 0x0, 0x0, 0x0, 0xa, 0x0, 0x0, 0x0,
  0x0, 0x0, 0x0, 0x9, 0x78, 0x0, 0x0, 0x0, 0x2, 0x0, 0x0, 0x0,
  0xff, 0xff, 0xff, 0xff, 0x3, 0x0, 0x0, 0x0, 0x8c, 0xf6, 0xff, 0xff,
  0x8, 0x0, 0x0, 0x0, 0x14, 0x0, 0x0, 0x0, 0x1, 0x0, 0x0, 0x0,
  0x50, 0x0, 0x0, 0x0, 0x0, 0x0, 0x0, 0x0, 0x0, 0x0, 0x0, 0x0,
  0x1, 0x0, 0x0, 0x0, 0xd3, 0xec, 0x87, 0x3e, 0x3c, 0x0, 0x0, 0x0,
  0x73, 0x65, 0x71, 0x75, 0x65, 0x6e, 0x74, 0x69, 0x61, 0x6c, 0x5f, 0x31,
  0x2f, 0x64, 0x65, 0x6e, 0x73, 0x65, 0x5f, 0x32, 0x5f, 0x31, 0x2f, 0x4d,
  0x61, 0x74, 0x4d, 0x75, 0x6c, 0x3b, 0x73, 0x65, 0x71, 0x75, 0x65, 0x6e,
  0x74, 0x69, 0x61, 0x6c, 0x5f, 0x31, 0x2f, 0x64, 0x65, 0x6e, 0x73, 0x65,
  0x5f, 0x32, 0x5f, 0x31, 0x2f, 0x42, 0x69, 0x61, 0x73, 0x41, 0x64, 0x64,
  0x0, 0x0, 0x0, 0x0, 0x2, 0x0, 0x0, 0x0, 0x1, 0x0, 0x0, 0x0,
  0x3, 0x0, 0x0, 0x0, 0x42, 0xf7, 0xff, 0xff, 0x0, 0x0, 0x0, 0x1,
  0x18, 0x0, 0x0, 0x0, 0x20, 0x0, 0x0, 0x0, 0x3c, 0x0, 0x0, 0x0,
  0x9, 0x0, 0x0, 0x0, 0x0, 0x0, 0x0, 0x9, 0x90, 0x0, 0x0, 0x0,
  0x2, 0x0, 0x0, 0x0, 0xff, 0xff, 0xff, 0xff, 0x10, 0x0, 0x0, 0x0,
  0x2c, 0xf7, 0xff, 0xff, 0x8, 0x0, 0x0, 0x0, 0x10, 0x0, 0x0, 0x0,
  0x1, 0x0, 0x0, 0x0, 0x80, 0xff, 0xff, 0xff, 0xff, 0xff, 0xff, 0xff,
  0x1, 0x0, 0x0, 0x0, 0x27, 0x2b, 0x3a, 0x3d, 0x58, 0x0, 0x0, 0x0,
  0x73, 0x65, 0x71, 0x75, 0x65, 0x6e, 0x74, 0x69, 0x61, 0x6c, 0x5f, 0x31,
  0x2f, 0x64, 0x65, 0x6e, 0x73, 0x65, 0x5f, 0x31, 0x5f, 0x32, 0x2f, 0x4d,
  0x61, 0x74, 0x4d, 0x75, 0x6c, 0x3b, 0x73, 0x65, 0x71, 0x75, 0x65, 0x6e,
  0x74, 0x69, 0x61, 0x6c, 0x5f, 0x31, 0x2f, 0x64, 0x65, 0x6e, 0x73, 0x65,
  0x5f, 0x31, 0x5f, 0x32, 0x2f, 0x52, 0x65, 0x6c, 0x75, 0x3b, 0x73, 0x65,
  0x71, 0x75, 0x65, 0x6e, 0x74, 0x69, 0x61, 0x6c, 0x5f, 0x31, 0x2f, 0x64,
  0x65, 0x6e, 0x73, 0x65, 0x5f, 0x31, 0x5f, 0x32, 0x2f, 0x42, 0x69, 0x61,
  0x73, 0x41, 0x64, 0x64, 0x0, 0x0, 0x0, 0x0, 0x2, 0x0, 0x0, 0x0,
  0x1, 0x0, 0x0, 0x0, 0x10, 0x0, 0x0, 0x0, 0xfa, 0xf7, 0xff, 0xff,
  0x0, 0x0, 0x0, 0x1, 0x18, 0x0, 0x0, 0x0, 0x20, 0x0, 0x0, 0x0,
  0x3c, 0x0, 0x0, 0x0, 0x8, 0x0, 0x0, 0x0, 0x0, 0x0, 0x0, 0x9,
  0x88, 0x0, 0x0, 0x0, 0x2, 0x0, 0x0, 0x0, 0xff, 0xff, 0xff, 0xff,
  0x20, 0x0, 0x0, 0x0, 0xe4, 0xf7, 0xff, 0xff, 0x8, 0x0, 0x0, 0x0,
  0x10, 0x0, 0x0, 0x0, 0x1, 0x0, 0x0, 0x0, 0x80, 0xff, 0xff, 0xff,
  0xff, 0xff, 0xff, 0xff, 0x1, 0x0, 0x0, 0x0, 0x5c, 0x61, 0xc6, 0x3c,
  0x52, 0x0, 0x0, 0x0, 0x73, 0x65, 0x71, 0x75, 0x65, 0x6e, 0x74, 0x69,
  0x61, 0x6c, 0x5f, 0x31, 0x2f, 0x64, 0x65, 0x6e, 0x73, 0x65, 0x5f, 0x31,
  0x2f, 0x4d, 0x61, 0x74, 0x4d, 0x75, 0x6c, 0x3b, 0x73, 0x65, 0x71, 0x75,
  0x65, 0x6e, 0x74, 0x69, 0x61, 0x6c, 0x5f, 0x31, 0x2f, 0x64, 0x65, 0x6e,
  0x73, 0x65, 0x5f, 0x31, 0x2f, 0x52, 0x65, 0x6c, 0x75, 0x3b, 0x73, 0x65,
  0x71, 0x75, 0x65, 0x6e, 0x74, 0x69, 0x61, 0x6c, 0x5f, 0x31, 0x2f, 0x64,
  0x65, 0x6e, 0x73, 0x65, 0x5f, 0x31, 0x2f, 0x42, 0x69, 0x61, 0x73, 0x41,
  0x64, 0x64, 0x0, 0x0, 0x2, 0x0, 0x0, 0x0, 0x1, 0x0, 0x0, 0x0,
  0x20, 0x0, 0x0, 0x0, 0x46, 0xf9, 0xff, 0xff, 0x0, 0x0, 0x0, 0x1,
  0x14, 0x0, 0x0, 0x0, 0xa8, 0x1, 0x0, 0x0, 0x7, 0x0, 0x0, 0x0,
  0x0, 0x0, 0x0, 0x9, 0xbc, 0x1, 0x0, 0x0, 0x84, 0xf8, 0xff, 0xff,
  0x8, 0x0, 0x0, 0x0, 0xc, 0x1, 0x0, 0x0, 0x20, 0x0, 0x0, 0x0,
  0x0, 0x0, 0x0, 0x0, 0x0, 0x0, 0x0, 0x0, 0x0, 0x0, 0x0, 0x0,
  0x0, 0x0, 0x0, 0x0, 0x0, 0x0, 0x0, 0x0, 0x0, 0x0, 0x0, 0x0,
  0x0, 0x0, 0x0, 0x0, 0x0, 0x0, 0x0, 0x0, 0x0, 0x0, 0x0, 0x0,
  0x0, 0x0, 0x0, 0x0, 0x0, 0x0, 0x0, 0x0, 0x0, 0x0, 0x0, 0x0,
  0x0, 0x0, 0x0, 0x0, 0x0, 0x0, 0x0, 0x0, 0x0, 0x0, 0x0, 0x0,
  0x0, 0x0, 0x0, 0x0, 0x0, 0x0, 0x0, 0x0, 0x0, 0x0, 0x0, 0x0,
  0x0, 0x0, 0x0, 0x0, 0x0, 0x0, 0x0, 0x0, 0x0, 0x0, 0x0, 0x0,
  0x0, 0x0, 0x0, 0x0, 0x0, 0x0, 0x0, 0x0, 0x0, 0x0, 0x0, 0x0,
  0x0, 0x0, 0x0, 0x0, 0x0, 0x0, 0x0, 0x0, 0x0, 0x0, 0x0, 0x0,
  0x0, 0x0, 0x0, 0x0, 0x0, 0x0, 0x0, 0x0, 0x0, 0x0, 0x0, 0x0,
  0x0, 0x0, 0x0, 0x0, 0x0, 0x0, 0x0, 0x0, 0x0, 0x0, 0x0, 0x0,
  0x0, 0x0, 0x0, 0x0, 0x0, 0x0, 0x0, 0x0, 0x0, 0x0, 0x0, 0x0,
  0x0, 0x0, 0x0, 0x0, 0x0, 0x0, 0x0, 0x0, 0x0, 0x0, 0x0, 0x0,
  0x0, 0x0, 0x0, 0x0, 0x0, 0x0, 0x0, 0x0, 0x0, 0x0, 0x0, 0x0,
  0x0, 0x0, 0x0, 0x0, 0x0, 0x0, 0x0, 0x0, 0x0, 0x0, 0x0, 0x0,
  0x0, 0x0, 0x0, 0x0, 0x0, 0x0, 0x0, 0x0, 0x0, 0x0, 0x0, 0x0,
  0x0, 0x0, 0x0, 0x0, 0x0, 0x0, 0x0, 0x0, 0x0, 0x0, 0x0, 0x0,
  0x0, 0x0, 0x0, 0x0, 0x0, 0x0, 0x0, 0x0, 0x0, 0x0, 0x0, 0x0,
  0x0, 0x0, 0x0, 0x0, 0x0, 0x0, 0x0, 0x0, 0x0, 0x0, 0x0, 0x0,
  0x0, 0x0, 0x0, 0x0, 0x0, 0x0, 0x0, 0x0, 0x0, 0x0, 0x0, 0x0,
  0x0, 0x0, 0x0, 0x0, 0x0, 0x0, 0x0, 0x0, 0x0, 0x0, 0x0, 0x0,
  0x0, 0x0, 0x0, 0x0, 0x0, 0x0, 0x0, 0x0, 0x20, 0x0, 0x0, 0x0,
  0x1e, 0x82, 0xb4, 0x3a, 0x7e, 0xb, 0xb9, 0x3c, 0xd4, 0x11, 0xf3, 0x3c,
  0xe4, 0x23, 0xb9, 0x3a, 0x35, 0x3f, 0x7f, 0x3c, 0xb5, 0x52, 0xc8, 0x3a,
  0xe5, 0x78, 0x5f, 0x3c, 0x99, 0x71, 0x3, 0x3d, 0x1f, 0xb, 0x2, 0x3c,
  0x69, 0xb4, 0xa9, 0x3c, 0x42, 0xc6, 0x86, 0x3c, 0xcb, 0x7a, 0x4c, 0x3c,
  0xfd, 0xc9, 0xb5, 0x3a, 0x58, 0x25, 0xbd, 0x3a, 0x78, 0x7b, 0xbb, 0x3c,
  0xe9, 0xcd, 0xc5, 0x3a, 0x52, 0x3d, 0x59, 0x3c, 0xf2, 0xd3, 0x31, 0x3c,
  0x68, 0x6f, 0x74, 0x3c, 0xd1, 0xc, 0x61, 0x3c, 0xda, 0xfc, 0x92, 0x3c,
  0xd0, 0xf6, 0x39, 0x3c, 0xeb, 0xf4, 0xe7, 0x3a, 0x89, 0xeb, 0xef, 0x3c,
  0x4f, 0x91, 0xb2, 0x3c, 0x88, 0x9c, 0xb8, 0x3c, 0x80, 0x9c, 0x19, 0x3c,
  0xaa, 0xc, 0x91, 0x3c, 0xe1, 0x3e, 0x8, 0x3c, 0xd7, 0x83, 0x11, 0x3c,
  0xfc, 0x43, 0x65, 0x3c, 0x70, 0x27, 0xf, 0x3c, 0x1b, 0x0, 0x0, 0x0,
  0x73, 0x65, 0x71, 0x75, 0x65, 0x6e, 0x74, 0x69, 0x61, 0x6c, 0x5f, 0x31,
  0x2f, 0x64, 0x65, 0x6e, 0x73, 0x65, 0x5f, 0x31, 0x2f, 0x4d, 0x61, 0x74,
  0x4d, 0x75, 0x6c, 0x0, 0x2, 0x0, 0x0, 0x0, 0x20, 0x0, 0x0, 0x0,
  0xc0, 0x0, 0x0, 0x0, 0x26, 0xfb, 0xff, 0xff, 0x0, 0x0, 0x0, 0x1,
  0x14, 0x0, 0x0, 0x0, 0xa8, 0x1, 0x0, 0x0, 0x6, 0x0, 0x0, 0x0,
  0x0, 0x0, 0x0, 0x2, 0xd8, 0x1, 0x0, 0x0, 0x64, 0xfa, 0xff, 0xff,
  0x8, 0x0, 0x0, 0x0, 0xc, 0x1, 0x0, 0x0, 0x20, 0x0, 0x0, 0x0,
  0x0, 0x0, 0x0, 0x0, 0x0, 0x0, 0x0, 0x0, 0x0, 0x0, 0x0, 0x0,
  0x0, 0x0, 0x0, 0x0, 0x0, 0x0, 0x0, 0x0, 0x0, 0x0, 0x0, 0x0,
  0x0, 0x0, 0x0, 0x0, 0x0, 0x0, 0x0, 0x0, 0x0, 0x0, 0x0, 0x0,
  0x0, 0x0, 0x0, 0x0, 0x0, 0x0, 0x0, 0x0, 0x0, 0x0, 0x0, 0x0,
  0x0, 0x0, 0x0, 0x0, 0x0, 0x0, 0x0, 0x0, 0x0, 0x0, 0x0, 0x0,
  0x0, 0x0, 0x0, 0x0, 0x0, 0x0, 0x0, 0x0, 0x0, 0x0, 0x0, 0x0,
  0x0, 0x0, 0x0, 0x0, 0x0, 0x0, 0x0, 0x0, 0x0, 0x0, 0x0, 0x0,
  0x0, 0x0, 0x0, 0x0, 0x0, 0x0, 0x0, 0x0, 0x0, 0x0, 0x0, 0x0,
  0x0, 0x0, 0x0, 0x0, 0x0, 0x0, 0x0, 0x0, 0x0, 0x0, 0x0, 0x0,
  0x0, 0x0, 0x0, 0x0, 0x0, 0x0, 0x0, 0x0, 0x0, 0x0, 0x0, 0x0,
  0x0, 0x0, 0x0, 0x0, 0x0, 0x0, 0x0, 0x0, 0x0, 0x0, 0x0, 0x0,
  0x0, 0x0, 0x0, 0x0, 0x0, 0x0, 0x0, 0x0, 0x0, 0x0, 0x0, 0x0,
  0x0, 0x0, 0x0, 0x0, 0x0, 0x0, 0x0, 0x0, 0x0, 0x0, 0x0, 0x0,
  0x0, 0x0, 0x0, 0x0, 0x0, 0x0, 0x0, 0x0, 0x0, 0x0, 0x0, 0x0,
  0x0, 0x0, 0x0, 0x0, 0x0, 0x0, 0x0, 0x0, 0x0, 0x0, 0x0, 0x0,
  0x0, 0x0, 0x0, 0x0, 0x0, 0x0, 0x0, 0x0, 0x0, 0x0, 0x0, 0x0,
  0x0, 0x0, 0x0, 0x0, 0x0, 0x0, 0x0, 0x0, 0x0, 0x0, 0x0, 0x0,
  0x0, 0x0, 0x0, 0x0, 0x0, 0x0, 0x0, 0x0, 0x0, 0x0, 0x0, 0x0,
  0x0, 0x0, 0x0, 0x0, 0x0, 0x0, 0x0, 0x0, 0x0, 0x0, 0x0, 0x0,
  0x0, 0x0, 0x0, 0x0, 0x0, 0x0, 0x0, 0x0, 0x0, 0x0, 0x0, 0x0,
  0x0, 0x0, 0x0, 0x0, 0x0, 0x0, 0x0, 0x0, 0x0, 0x0, 0x0, 0x0,
  0x0, 0x0, 0x0, 0x0, 0x0, 0x0, 0x0, 0x0, 0x20, 0x0, 0x0, 0x0,
  0x48, 0xd, 0x2e, 0x36, 0x1e, 0x6d, 0x32, 0x38, 0x25, 0x60, 0x6a, 0x38,
  0xa4, 0x84, 0x32, 0x36, 0x5, 0x1e, 0xf6, 0x37, 0x6f, 0x28, 0x41, 0x36,
  0xa8, 0x7a, 0xd7, 0x37, 0xc, 0x7c, 0x7d, 0x38, 0xbd, 0xc8, 0x7a, 0x37,
  0x7f, 0xa2, 0x23, 0x38, 0x30, 0xf4, 0x1, 0x38, 0x76, 0x2a, 0xc5, 0x37,
  0x6d, 0x49, 0x2f, 0x36, 0x6b, 0x61, 0x36, 0x36, 0xc6, 0xc6, 0x34, 0x38,
  0xb3, 0xba, 0x3e, 0x36, 0x27, 0x78, 0xd1, 0x37, 0xa7, 0x77, 0xab, 0x37,
  0x38, 0xb1, 0xeb, 0x37, 0x21, 0x0, 0xd9, 0x37, 0xf3, 0xba, 0xd, 0x38,
  0x5, 0x50, 0xb3, 0x37, 0xfd, 0xa8, 0x5f, 0x36, 0xb1, 0x56, 0x67, 0x38,
  0x3e, 0x2e, 0x2c, 0x38, 0x20, 0x2, 0x32, 0x38, 0xf2, 0x1d, 0x94, 0x37,
  0x82, 0xdc, 0xb, 0x38, 0x56, 0x5f, 0x83, 0x37, 0x6c, 0x4f, 0x8c, 0x37,
  0xb3, 0x10, 0xdd, 0x37, 0xa3, 0x8, 0x8a, 0x37, 0x36, 0x0, 0x0, 0x0,
  0x73, 0x65, 0x71, 0x75, 0x65, 0x6e, 0x74, 0x69, 0x61, 0x6c, 0x5f, 0x31,
  0x2f, 0x64, 0x65, 0x6e, 0x73, 0x65, 0x5f, 0x31, 0x2f, 0x52, 0x65, 0x6c,
  0x75, 0x3b, 0x73, 0x65, 0x71, 0x75, 0x65, 0x6e, 0x74, 0x69, 0x61, 0x6c,
  0x5f, 0x31, 0x2f, 0x64, 0x65, 0x6e, 0x73, 0x65, 0x5f, 0x31, 0x2f, 0x42,
  0x69, 0x61, 0x73, 0x41, 0x64, 0x64, 0x0, 0x0, 0x1, 0x0, 0x0, 0x0,
  0x20, 0x0, 0x0, 0x0, 0x1e, 0xfd, 0xff, 0xff, 0x0, 0x0, 0x0, 0x1,
  0x14, 0x0, 0x0, 0x0, 0xe4, 0x0, 0x0, 0x0, 0x5, 0x0, 0x0, 0x0,
  0x0, 0x0, 0x0, 0x9, 0xfc, 0x0, 0x0, 0x0, 0x5c, 0xfc, 0xff, 0xff,
  0x8, 0x0, 0x0, 0x0, 0x88, 0x0, 0x0, 0x0, 0x10, 0x0, 0x0, 0x0,
  0x0, 0x0, 0x0, 0x0, 0x0, 0x0, 0x0, 0x0, 0x0, 0x0, 0x0, 0x0,
  0x0, 0x0, 0x0, 0x0, 0x0, 0x0, 0x0, 0x0, 0x0, 0x0, 0x0, 0x0,
  0x0, 0x0, 0x0, 0x0, 0x0, 0x0, 0x0, 0x0, 0x0, 0x0, 0x0, 0x0,
  0x0, 0x0, 0x0, 0x0, 0x0, 0x0, 0x0, 0x0, 0x0, 0x0, 0x0, 0x0,
  0x0, 0x0, 0x0, 0x0, 0x0, 0x0, 0x0, 0x0, 0x0, 0x0, 0x0, 0x0,
  0x0, 0x0, 0x0, 0x0, 0x0, 0x0, 0x0, 0x0, 0x0, 0x0, 0x0, 0x0,
  0x0, 0x0, 0x0, 0x0, 0x0, 0x0, 0x0, 0x0, 0x0, 0x0, 0x0, 0x0,
  0x0, 0x0, 0x0, 0x0, 0x0, 0x0, 0x0, 0x0, 0x0, 0x0, 0x0, 0x0,
  0x0, 0x0, 0x0, 0x0, 0x0, 0x0, 0x0, 0x0, 0x0, 0x0, 0x0, 0x0,
  0x0, 0x0, 0x0, 0x0, 0x0, 0x0, 0x0, 0x0, 0x0, 0x0, 0x0, 0x0,
  0x0, 0x0, 0x0, 0x0, 0x0, 0x0, 0x0, 0x0, 0x10, 0x0, 0x0, 0x0,
  0x9c, 0x5b, 0x7e, 0x3c, 0x76, 0xa5, 0xf7, 0x3b, 0x38, 0x3b, 0xaf, 0x3c,
  0x69, 0xdd, 0xc2, 0x3b, 0x1f, 0x48, 0xda, 0x3b, 0xbd, 0x20, 0x11, 0x3c,
  0x7b, 0xd0, 0x37, 0x3c, 0xd7, 0x1d, 0xad, 0x3c, 0x8c, 0x71, 0xc8, 0x3c,
  0xff, 0x74, 0xd5, 0x3c, 0x3d, 0x9e, 0x1f, 0x3b, 0x33, 0xd4, 0xf7, 0x3b,
  0xb7, 0x64, 0x4b, 0x3b, 0x9d, 0x5, 0x8b, 0x3c, 0xcc, 0x70, 0x91, 0x3c,
  0x7a, 0xc3, 0xf5, 0x3b, 0x1d, 0x0, 0x0, 0x0, 0x73, 0x65, 0x71, 0x75,
  0x65, 0x6e, 0x74, 0x69, 0x61, 0x6c, 0x5f, 0x31, 0x2f, 0x64, 0x65, 0x6e,
  0x73, 0x65, 0x5f, 0x31, 0x5f, 0x32, 0x2f, 0x4d, 0x61, 0x74, 0x4d, 0x75,
  0x6c, 0x0, 0x0, 0x0, 0x2, 0x0, 0x0, 0x0, 0x10, 0x0, 0x0, 0x0,
  0x20, 0x0, 0x0, 0x0, 0x3e, 0xfe, 0xff, 0xff, 0x0, 0x0, 0x0, 0x1,
  0x14, 0x0, 0x0, 0x0, 0xe4, 0x0, 0x0, 0x0, 0x4, 0x0, 0x0, 0x0,
  0x0, 0x0, 0x0, 0x2, 0x18, 0x1, 0x0, 0x0, 0x7c, 0xfd, 0xff, 0xff,
  0x8, 0x0, 0x0, 0x0, 0x88, 0x0, 0x0, 0x0, 0x10, 0x0, 0x0, 0x0,
  0x0, 0x0, 0x0, 0x0, 0x0, 0x0, 0x0, 0x0, 0x0, 0x0, 0x0, 0x0,
  0x0, 0x0, 0x0, 0x0, 0x0, 0x0, 0x0, 0x0, 0x0, 0x0, 0x0, 0x0,
  0x0, 0x0, 0x0, 0x0, 0x0, 0x0, 0x0, 0x0, 0x0, 0x0, 0x0, 0x0,
  0x0, 0x0, 0x0, 0x0, 0x0, 0x0, 0x0, 0x0, 0x0, 0x0, 0x0, 0x0,
  0x0, 0x0, 0x0, 0x0, 0x0, 0x0, 0x0, 0x0, 0x0, 0x0, 0x0, 0x0,
  0x0, 0x0, 0x0, 0x0, 0x0, 0x0, 0x0, 0x0, 0x0, 0x0, 0x0, 0x0,
  0x0, 0x0, 0x0, 0x0, 0x0, 0x0, 0x0, 0x0, 0x0, 0x0, 0x0, 0x0,
  0x0, 0x0, 0x0, 0x0, 0x0, 0x0, 0x0, 0x0, 0x0, 0x0, 0x0, 0x0,
  0x0, 0x0, 0x0, 0x0, 0x0, 0x0, 0x0, 0x0, 0x0, 0x0, 0x0, 0x0,
  0x0, 0x0, 0x0, 0x0, 0x0, 0x0, 0x0, 0x0, 0x0, 0x0, 0x0, 0x0,
  0x0, 0x0, 0x0, 0x0, 0x0, 0x0, 0x0, 0x0, 0x10, 0x0, 0x0, 0x0,
  0x97, 0x1b, 0xc5, 0x39, 0x28, 0xe8, 0x3f, 0x39, 0x72, 0xca, 0x7, 0x3a,
  0x5b, 0x1, 0x17, 0x39, 0xcc, 0x26, 0x29, 0x39, 0x7, 0xed, 0x60, 0x39,
  0x27, 0x71, 0x8e, 0x39, 0xeb, 0x26, 0x6, 0x3a, 0xd, 0x54, 0x1b, 0x3a,
  0xab, 0x69, 0x25, 0x3a, 0x2f, 0x62, 0x77, 0x38, 0x60, 0xc, 0x40, 0x39,
  0x40, 0x9d, 0x9d, 0x38, 0x6d, 0x76, 0xd7, 0x39, 0x1c, 0x69, 0xe1, 0x39,
  0xa8, 0x72, 0x3e, 0x39, 0x3a, 0x0, 0x0, 0x0, 0x73, 0x65, 0x71, 0x75,
  0x65, 0x6e, 0x74, 0x69, 0x61, 0x6c, 0x5f, 0x31, 0x2f, 0x64, 0x65, 0x6e,
  0x73, 0x65, 0x5f, 0x31, 0x5f, 0x32, 0x2f, 0x52, 0x65, 0x6c, 0x75, 0x3b,
  0x73, 0x65, 0x71, 0x75, 0x65, 0x6e, 0x74, 0x69, 0x61, 0x6c, 0x5f, 0x31,
  0x2f, 0x64, 0x65, 0x6e, 0x73, 0x65, 0x5f, 0x31, 0x5f, 0x32, 0x2f, 0x42,
  0x69, 0x61, 0x73, 0x41, 0x64, 0x64, 0x0, 0x0, 0x1, 0x0, 0x0, 0x0,
  0x10, 0x0, 0x0, 0x0, 0x76, 0xff, 0xff, 0xff, 0x0, 0x0, 0x0, 0x1,
  0x14, 0x0, 0x0, 0x0, 0x4c, 0x0, 0x0, 0x0, 0x3, 0x0, 0x0, 0x0,
  0x0, 0x0, 0x0, 0x9, 0x64, 0x0, 0x0, 0x0, 0xb4, 0xfe, 0xff, 0xff,
  0x8, 0x0, 0x0, 0x0, 0x24, 0x0, 0x0, 0x0, 0x3, 0x0, 0x0, 0x0,
  0x0, 0x0, 0x0, 0x0, 0x0, 0x0, 0x0, 0x0, 0x0, 0x0, 0x0, 0x0,
  0x0, 0x0, 0x0, 0x0, 0x0, 0x0, 0x0, 0x0, 0x0, 0x0, 0x0, 0x0,
  0x0, 0x0, 0x0, 0x0, 0x3, 0x0, 0x0, 0x0, 0xa3, 0xf3, 0x99, 0x3c,
  0xb9, 0xb7, 0x95, 0x3c, 0x9a, 0xf5, 0x5, 0x3d, 0x1d, 0x0, 0x0, 0x0,
  0x73, 0x65, 0x71, 0x75, 0x65, 0x6e, 0x74, 0x69, 0x61, 0x6c, 0x5f, 0x31,
  0x2f, 0x64, 0x65, 0x6e, 0x73, 0x65, 0x5f, 0x32, 0x5f, 0x31, 0x2f, 0x4d,
  0x61, 0x74, 0x4d, 0x75, 0x6c, 0x0, 0x0, 0x0, 0x2, 0x0, 0x0, 0x0,
  0x3, 0x0, 0x0, 0x0, 0x10, 0x0, 0x0, 0x0, 0x0, 0x0, 0x16, 0x0,
  0x1c, 0x0, 0x18, 0x0, 0x17, 0x0, 0x10, 0x0, 0xc, 0x0, 0x8, 0x0,
  0x0, 0x0, 0x0, 0x0, 0x0, 0x0, 0x7, 0x0, 0x16, 0x0, 0x0, 0x0,
  0x0, 0x0, 0x0, 0x1, 0x14, 0x0, 0x0, 0x0, 0x4c, 0x0, 0x0, 0x0,
  0x2, 0x0, 0x0, 0x0, 0x0, 0x0, 0x0, 0x2, 0x64, 0x0, 0x0, 0x0,
  0x54, 0xff, 0xff, 0xff, 0x8, 0x0, 0x0, 0x0, 0x24, 0x0, 0x0, 0x0,
  0x3, 0x0, 0x0, 0x0, 0x0, 0x0, 0x0, 0x0, 0x0, 0x0, 0x0, 0x0,
  0x0, 0x0, 0x0, 0x0, 0x0, 0x0, 0x0, 0x0, 0x0, 0x0, 0x0, 0x0,
  0x0, 0x0, 0x0, 0x0, 0x0, 0x0, 0x0, 0x0, 0x3, 0x0, 0x0, 0x0,
  0xf0, 0xe9, 0x5f, 0x3a, 0x72, 0xc1, 0x59, 0x3a, 0xd, 0xd6, 0xc2, 0x3a,
  0x1e, 0x0, 0x0, 0x0, 0x73, 0x65, 0x71, 0x75, 0x65, 0x6e, 0x74, 0x69,
  0x61, 0x6c, 0x5f, 0x31, 0x2f, 0x64, 0x65, 0x6e, 0x73, 0x65, 0x5f, 0x32,
  0x5f, 0x31, 0x2f, 0x42, 0x69, 0x61, 0x73, 0x41, 0x64, 0x64, 0x0, 0x0,
  0x1, 0x0, 0x0, 0x0, 0x3, 0x0, 0x0, 0x0, 0x0, 0x0, 0x16, 0x0,
  0x20, 0x0, 0x1c, 0x0, 0x1b, 0x0, 0x14, 0x0, 0x10, 0x0, 0xc, 0x0,
  0x0, 0x0, 0x0, 0x0, 0x8, 0x0, 0x7, 0x0, 0x16, 0x0, 0x0, 0x0,
  0x0, 0x0, 0x0, 0x1, 0x18, 0x0, 0x0, 0x0, 0x2c, 0x0, 0x0, 0x0,
  0x48, 0x0, 0x0, 0x0, 0x1, 0x0, 0x0, 0x0, 0x0, 0x0, 0x0, 0x9,
  0x60, 0x0, 0x0, 0x0, 0x2, 0x0, 0x0, 0x0, 0xff, 0xff, 0xff, 0xff,
  0xc0, 0x0, 0x0, 0x0, 0xc, 0x0, 0xc, 0x0, 0x0, 0x0, 0x0, 0x0,
  0x8, 0x0, 0x4, 0x0, 0xc, 0x0, 0x0, 0x0, 0x8, 0x0, 0x0, 0x0,
  0x10, 0x0, 0x0, 0x0, 0x1, 0x0, 0x0, 0x0, 0x80, 0xff, 0xff, 0xff,
  0xff, 0xff, 0xff, 0xff, 0x1, 0x0, 0x0, 0x0, 0xeb, 0xd7, 0xf6, 0x3a,
  0x1d, 0x0, 0x0, 0x0, 0x73, 0x65, 0x72, 0x76, 0x69, 0x6e, 0x67, 0x5f,
  0x64, 0x65, 0x66, 0x61, 0x75, 0x6c, 0x74, 0x5f, 0x72, 0x61, 0x64, 0x61,
  0x72, 0x5f, 0x69, 0x6e, 0x70, 0x75, 0x74, 0x3a, 0x30, 0x0, 0x0, 0x0,
  0x2, 0x0, 0x0, 0x0, 0x1, 0x0, 0x0, 0x0, 0xc0, 0x0, 0x0, 0x0,
  0x2, 0x0, 0x0, 0x0, 0x24, 0x0, 0x0, 0x0, 0x4, 0x0, 0x0, 0x0,
  0xf0, 0xff, 0xff, 0xff, 0x19, 0x0, 0x0, 0x0, 0x2, 0x0, 0x0, 0x0,
  0x0, 0x0, 0x0, 0x19, 0xc, 0x0, 0x10, 0x0, 0xf, 0x0, 0x0, 0x0,
  0x8, 0x0, 0x4, 0x0, 0xc, 0x0, 0x0, 0x0, 0x9, 0x0, 0x0, 0x0,
  0x4, 0x0, 0x0, 0x0, 0x0, 0x0, 0x0, 0x9
};
const unsigned int echo_model_tflite_len = 10640;

#endif // ECHO_MODEL_H
